{
  "version": "1.0",
  "truncation": null,
  "padding": null,
  "added_tokens": [
    {
      "id": 0,
      "content": "[UNK]",
      "single_word": false,
      "lstrip": false,
      "rstrip": false,
      "normalized": false,
      "special": true
    },
    {
      "id": 1,
      "content": "[CLS]",
      "single_word": false,
      "lstrip": false,
      "rstrip": false,
      "normalized": false,
      "special": true
    },
    {
      "id": 2,
      "content": "[SEP]",
      "single_word": false,
      "lstrip": false,
      "rstrip": false,
      "normalized": false,
      "special": true
    },
    {
      "id": 3,
      "content": "[PAD]",
      "single_word": false,
      "lstrip": false,
      "rstrip": false,
      "normalized": false,
      "special": true
    },
    {
      "id": 4,
      "content": "[MASK]",
      "single_word": false,
      "lstrip": false,
      "rstrip": false,
      "normalized": false,
      "special": true
    }
  ],
  "normalizer": null,
  "pre_tokenizer": {
    "type": "Whitespace"
  },
  "post_processor": null,
  "decoder": null,
  "model": {
    "type": "BPE",
    "dropout": null,
    "unk_token": null,
    "continuing_subword_prefix": null,
    "end_of_word_suffix": null,
    "fuse_unk": false,
    "byte_fallback": false,
    "ignore_merges": false,
    "vocab": {
      "[UNK]": 0,
      "[CLS]": 1,
      "[SEP]": 2,
      "[PAD]": 3,
      "[MASK]": 4,
      "!": 5,
      "\"": 6,
      "#": 7,
      "$": 8,
      "%": 9,
      "&": 10,
      "'": 11,
      "(": 12,
      ")": 13,
      "*": 14,
      "+": 15,
      ",": 16,
      "-": 17,
      ".": 18,
      "/": 19,
      "0": 20,
      "1": 21,
      "2": 22,
      "3": 23,
      "4": 24,
      "5": 25,
      "6": 26,
      "7": 27,
      "8": 28,
      "9": 29,
      ":": 30,
      ";": 31,
      "<": 32,
      "=": 33,
      ">": 34,
      "?": 35,
      "@": 36,
      "A": 37,
      "B": 38,
      "C": 39,
      "D": 40,
      "E": 41,
      "F": 42,
      "G": 43,
      "H": 44,
      "I": 45,
      "J": 46,
      "K": 47,
      "L": 48,
      "M": 49,
      "N": 50,
      "O": 51,
      "P": 52,
      "Q": 53,
      "R": 54,
      "S": 55,
      "T": 56,
      "U": 57,
      "V": 58,
      "W": 59,
      "X": 60,
      "Y": 61,
      "Z": 62,
      "[": 63,
      "\\": 64,
      "]": 65,
      "^": 66,
      "_": 67,
      "`": 68,
      "a": 69,
      "b": 70,
      "c": 71,
      "d": 72,
      "e": 73,
      "f": 74,
      "g": 75,
      "h": 76,
      "i": 77,
      "j": 78,
      "k": 79,
      "l": 80,
      "m": 81,
      "n": 82,
      "o": 83,
      "p": 84,
      "q": 85,
      "r": 86,
      "s": 87,
      "t": 88,
      "u": 89,
      "v": 90,
      "w": 91,
      "x": 92,
      "y": 93,
      "z": 94,
      "{": 95,
      "|": 96,
      "}": 97,
      "~": 98,
      "£": 99,
      "°": 100,
      "²": 101,
      "³": 102,
      "´": 103,
      "É": 104,
      "×": 105,
      "Ø": 106,
      "à": 107,
      "á": 108,
      "ã": 109,
      "ä": 110,
      "ç": 111,
      "é": 112,
      "í": 113,
      "ñ": 114,
      "ó": 115,
      "ô": 116,
      "ö": 117,
      "÷": 118,
      "ø": 119,
      "ü": 120,
      "ą": 121,
      "ğ": 122,
      "ı": 123,
      "ĺ": 124,
      "Δ": 125,
      "Φ": 126,
      "α": 127,
      "β": 128,
      "θ": 129,
      "λ": 130,
      "μ": 131,
      "π": 132,
      "ω": 133,
      "А": 134,
      "Б": 135,
      "В": 136,
      "К": 137,
      "М": 138,
      "П": 139,
      "Р": 140,
      "С": 141,
      "Т": 142,
      "Я": 143,
      "а": 144,
      "б": 145,
      "в": 146,
      "г": 147,
      "д": 148,
      "е": 149,
      "ж": 150,
      "з": 151,
      "и": 152,
      "й": 153,
      "к": 154,
      "л": 155,
      "м": 156,
      "н": 157,
      "о": 158,
      "п": 159,
      "р": 160,
      "с": 161,
      "т": 162,
      "у": 163,
      "ф": 164,
      "ц": 165,
      "ч": 166,
      "ы": 167,
      "ь": 168,
      "ю": 169,
      "я": 170,
      "ё": 171,
      "ঁ": 172,
      "ং": 173,
      "ঃ": 174,
      "অ": 175,
      "আ": 176,
      "ই": 177,
      "ঈ": 178,
      "উ": 179,
      "ঊ": 180,
      "ঋ": 181,
      "এ": 182,
      "ঐ": 183,
      "ও": 184,
      "ঔ": 185,
      "ক": 186,
      "খ": 187,
      "গ": 188,
      "ঘ": 189,
      "ঙ": 190,
      "চ": 191,
      "ছ": 192,
      "জ": 193,
      "ঝ": 194,
      "ঞ": 195,
      "ট": 196,
      "ঠ": 197,
      "ড": 198,
      "ঢ": 199,
      "ণ": 200,
      "ত": 201,
      "থ": 202,
      "দ": 203,
      "ধ": 204,
      "ন": 205,
      "প": 206,
      "ফ": 207,
      "ব": 208,
      "ভ": 209,
      "ম": 210,
      "য": 211,
      "র": 212,
      "ল": 213,
      "শ": 214,
      "ষ": 215,
      "স": 216,
      "হ": 217,
      "া": 218,
      "ি": 219,
      "ী": 220,
      "ু": 221,
      "ূ": 222,
      "ৃ": 223,
      "ে": 224,
      "ৈ": 225,
      "ো": 226,
      "ৌ": 227,
      "ৎ": 228,
      "ড়": 229,
      "ঢ়": 230,
      "য়": 231,
      "ฯ": 232,
      "ๆ": 233,
      "–": 234,
      "—": 235,
      "‘": 236,
      "’": 237,
      "“": 238,
      "”": 239,
      "•": 240,
      "⁻": 241,
      "₋": 242,
      "€": 243,
      "₹": 244,
      "№": 245,
      "™": 246,
      "∅": 247,
      "−": 248,
      "√": 249,
      "∞": 250,
      "き": 251,
      "さ": 252,
      "た": 253,
      "で": 254,
      "の": 255,
      "れ": 256,
      "ジ": 257,
      "ス": 258,
      "タ": 259,
      "テ": 260,
      "デ": 261,
      "ト": 262,
      "フ": 263,
      "ベ": 264,
      "マ": 265,
      "ム": 266,
      "モ": 267,
      "ラ": 268,
      "ル": 269,
      "レ": 270,
      "ン": 271,
      "ー": 272,
      "㎡": 273,
      "中": 274,
      "予": 275,
      "交": 276,
      "住": 277,
      "係": 278,
      "傾": 279,
      "分": 280,
      "列": 281,
      "別": 282,
      "医": 283,
      "员": 284,
      "回": 285,
      "图": 286,
      "変": 287,
      "学": 288,
      "宅": 289,
      "察": 290,
      "屋": 291,
      "工": 292,
      "差": 293,
      "布": 294,
      "帰": 295,
      "度": 296,
      "座": 297,
      "形": 298,
      "心": 299,
      "意": 300,
      "描": 301,
      "数": 302,
      "明": 303,
      "果": 304,
      "検": 305,
      "樓": 306,
      "標": 307,
      "測": 308,
      "满": 309,
      "点": 310,
      "用": 311,
      "画": 312,
      "療": 313,
      "的": 314,
      "目": 315,
      "結": 316,
      "線": 317,
      "習": 318,
      "观": 319,
      "証": 320,
      "説": 321,
      "部": 322,
      "配": 323,
      "非": 324,
      "類": 325,
      "가": 326,
      "간": 327,
      "감": 328,
      "개": 329,
      "객": 330,
      "거": 331,
      "건": 332,
      "경": 333,
      "계": 334,
      "고": 335,
      "과": 336,
      "구": 337,
      "균": 338,
      "근": 339,
      "금": 340,
      "기": 341,
      "날": 342,
      "남": 343,
      "너": 344,
      "년": 345,
      "니": 346,
      "당": 347,
      "대": 348,
      "도": 349,
      "드": 350,
      "득": 351,
      "등": 352,
      "딕": 353,
      "래": 354,
      "로": 355,
      "리": 356,
      "마": 357,
      "말": 358,
      "매": 359,
      "면": 360,
      "명": 361,
      "무": 362,
      "바": 363,
      "범": 364,
      "별": 365,
      "복": 366,
      "부": 367,
      "분": 368,
      "비": 369,
      "사": 370,
      "상": 371,
      "생": 372,
      "서": 373,
      "설": 374,
      "성": 375,
      "셔": 376,
      "소": 377,
      "수": 378,
      "시": 379,
      "아": 380,
      "액": 381,
      "약": 382,
      "업": 383,
      "여": 384,
      "요": 385,
      "용": 386,
      "울": 387,
      "월": 388,
      "위": 389,
      "율": 390,
      "음": 391,
      "의": 392,
      "이": 393,
      "인": 394,
      "일": 395,
      "임": 396,
      "입": 397,
      "자": 398,
      "장": 399,
      "적": 400,
      "전": 401,
      "종": 402,
      "주": 403,
      "준": 404,
      "중": 405,
      "지": 406,
      "직": 407,
      "짜": 408,
      "최": 409,
      "출": 410,
      "층": 411,
      "코": 412,
      "클": 413,
      "타": 414,
      "트": 415,
      "파": 416,
      "평": 417,
      "폐": 418,
      "합": 419,
      "환": 420,
      "활": 421,
      "ar": 422,
      "_v": 423,
      "_var": 424,
      "_var1": 425,
      "_var2": 426,
      "ST": 427,
      "STR": 428,
      "in": 429,
      "ra": 430,
      "re": 431,
      "_var3": 432,
      "at": 433,
      "st": 434,
      "or": 435,
      "_var4": 436,
      "_0": 437,
      "se": 438,
      "de": 439,
      "_t": 440,
      "er": 441,
      "_var5": 442,
      "al": 443,
      "pl": 444,
      "_1": 445,
      "_var6": 446,
      "co": 447,
      "est": 448,
      "rain": 449,
      "_var7": 450,
      "im": 451,
      "t_": 452,
      "le": 453,
      "_var8": 454,
      "df": 455,
      "on": 456,
      "ro": 457,
      "fi": 458,
      "_var9": 459,
      "()": 460,
      "_var10": 461,
      "ata": 462,
      "_p": 463,
      "ic": 464,
      "_var11": 465,
      "la": 466,
      "ort": 467,
      "si": 468,
      "',": 469,
      "data": 470,
      "pp": 471,
      "_var12": 472,
      "port": 473,
      "ue": 474,
      "_test": 475,
      "_train": 476,
      "_w": 477,
      "me": 478,
      "mo": 479,
      "_2": 480,
      "_var13": 481,
      "import": 482,
      "red": 483,
      "lo": 484,
      "del": 485,
      "hi": 486,
      "_var14": 487,
      "pper": 488,
      "el": 489,
      "rapper": 490,
      "_wrapper": 491,
      "en": 492,
      "model": 493,
      "plt": 494,
      "_var15": 495,
      "an": 496,
      "ti": 497,
      "_var16": 498,
      "train": 499,
      "int": 500,
      "_var17": 501,
      "_s": 502,
      "set_": 503,
      "_var18": 504,
      "pr": 505,
      "um": 506,
      "ax": 507,
      "ge": 508,
      "_var19": 509,
      "ot": 510,
      "inde": 511,
      "res": 512,
      "index": 513,
      "_var20": 514,
      "print": 515,
      "tr": 516,
      "val": 517,
      "_var21": 518,
      "ur": 519,
      "col": 520,
      "ac": 521,
      "_var22": 522,
      "ns": 523,
      "_var23": 524,
      "_3": 525,
      "rom": 526,
      "from": 527,
      "un": 528,
      "d_": 529,
      "for": 530,
      "_var24": 531,
      "es": 532,
      "test": 533,
      "as": 534,
      "_var25": 535,
      "bel": 536,
      "ret": 537,
      "00": 538,
      "urn": 539,
      "plot": 540,
      "ap": 541,
      "return": 542,
      "_var26": 543,
      "ing": 544,
      "label": 545,
      "_var27": 546,
      "pred": 547,
      "set_index": 548,
      "it": 549,
      "_var28": 550,
      "ba": 551,
      "sh": 552,
      "arn": 553,
      "def": 554,
      "ze": 555,
      "is": 556,
      "np": 557,
      "):": 558,
      "_var29": 559,
      "__": 560,
      "set_index_wrapper": 561,
      "':": 562,
      "value": 563,
      "_var31": 564,
      "learn": 565,
      "_pred": 566,
      "__p": 567,
      "hi__": 568,
      "__phi__": 569,
      "_var32": 570,
      "id": 571,
      "base": 572,
      "sk": 573,
      "_var30": 574,
      "size": 575,
      "_4": 576,
      "_var33": 577,
      "te": 578,
      "las": 579,
      "attr": 580,
      "pd": 581,
      "_var34": 582,
      "core": 583,
      "sklearn": 584,
      "ch": 585,
      "na": 586,
      "ad": 587,
      "_var35": 588,
      "predic": 589,
      "_f": 590,
      "eat": 591,
      "_var36": 592,
      "['": 593,
      "']": 594,
      "tion": 595,
      "ate": 596,
      "_var37": 597,
      "set": 598,
      "train_": 599,
      "li": 600,
      "_var38": 601,
      "s_": 602,
      "X_train": 603,
      "ati": 604,
      "ran": 605,
      "ut": 606,
      "lf": 607,
      "_var39": 608,
      "10": 609,
      "bal": 610,
      "sion": 611,
      "glo": 612,
      "phi": 613,
      "test_": 614,
      "fig": 615,
      "do": 616,
      "global": 617,
      "y_test": 618,
      "mat": 619,
      "am": 620,
      "global_wrapper": 621,
      "ul": 622,
      "_var42": 623,
      "ation": 624,
      "y_train": 625,
      "_var40": 626,
      "_c": 627,
      "rue": 628,
      "ape": 629,
      "_var43": 630,
      "eatu": 631,
      "_var41": 632,
      "fit": 633,
      "_var44": 634,
      "_val": 635,
      "_var45": 636,
      "ol": 637,
      "ine": 638,
      "_var46": 639,
      "_score": 640,
      "name": 641,
      "True": 642,
      "cal": 643,
      "ri": 644,
      "df_": 645,
      "_var47": 646,
      "dom": 647,
      "X_test": 648,
      "py": 649,
      "_var48": 650,
      "colum": 651,
      "if": 652,
      "_var49": 653,
      "ke": 654,
      "lassi": 655,
      "con": 656,
      "lassifi": 657,
      "y_pred": 658,
      "num": 659,
      "_var52": 660,
      "acc": 661,
      "_var50": 662,
      "ts": 663,
      "shape": 664,
      "rop": 665,
      "_var53": 666,
      "_var51": 667,
      "_var54": 668,
      "he": 669,
      "_5": 670,
      "ow": 671,
      "_var55": 672,
      "_data": 673,
      "end": 674,
      "age": 675,
      "predict": 676,
      "_var56": 677,
      "ed": 678,
      "rac": 679,
      "di": 680,
      "mean": 681,
      "_var57": 682,
      "columns": 683,
      "axis": 684,
      "s_0": 685,
      "_var58": 686,
      "12": 687,
      "coun": 688,
      "_var59": 689,
      "ub": 690,
      "sns": 691,
      "self": 692,
      "_model": 693,
      "th": 694,
      "sv": 695,
      "_st": 696,
      "list": 697,
      "phi_0": 698,
      "_var62": 699,
      "lassifier": 700,
      "ne": 701,
      "loc": 702,
      "_var60": 703,
      "random": 704,
      "featu": 705,
      "len": 706,
      "_var63": 707,
      "tit": 708,
      "ec": 709,
      "_var64": 710,
      "==": 711,
      "_var65": 712,
      "15": 713,
      "plit": 714,
      "drop": 715,
      "gh": 716,
      "to": 717,
      "_var66": 718,
      "20": 719,
      "df_1": 720,
      "_var67": 721,
      "y_": 722,
      "_var68": 723,
      "max": 724,
      "show": 725,
      "rans": 726,
      "_var69": 727,
      "ab": 728,
      "ers": 729,
      "_var61": 730,
      "25": 731,
      "gres": 732,
      "ace": 733,
      "tric": 734,
      "urac": 735,
      "_6": 736,
      "metric": 737,
      "_var70": 738,
      "sub": 739,
      "ve": 740,
      "accurac": 741,
      "_var73": 742,
      "form": 743,
      "out": 744,
      "_var74": 745,
      "model_": 746,
      "ep": 747,
      "op": 748,
      "_var75": 749,
      "_var76": 750,
      "ex": 751,
      "_var77": 752,
      "Re": 753,
      "_var72": 754,
      "and": 755,
      "100": 756,
      "sor": 757,
      "_var78": 758,
      "iz": 759,
      "mp": 760,
      "yp": 761,
      "_var79": 762,
      "eld": 763,
      "best": 764,
      "roc": 765,
      "pre": 766,
      "field": 767,
      "[:": 768,
      "_var71": 769,
      "lay": 770,
      "sc": 771,
      "metrics": 772,
      "df_0": 773,
      "ransform": 774,
      "Classifier": 775,
      "set_field": 776,
      "set_field_wrapper": 777,
      "accuracy": 778,
      "ras": 779,
      "get_": 780,
      "_split": 781,
      "head": 782,
      "_var80": 783,
      "title": 784,
      "der": 785,
      "_var83": 786,
      "image": 787,
      "keras": 788,
      "tim": 789,
      "mb": 790,
      "_var84": 791,
      "color": 792,
      "n_": 793,
      "_var85": 794,
      "igh": 795,
      "16": 796,
      "Data": 797,
      "ss": 798,
      "alse": 799,
      "_var86": 800,
      "ad_": 801,
      "rid": 802,
      "tor": 803,
      "place": 804,
      "lec": 805,
      "Regres": 806,
      "app": 807,
      "_var87": 808,
      "_var82": 809,
      "hist": 810,
      "_var88": 811,
      "rf": 812,
      "line": 813,
      "rame": 814,
      "add": 815,
      "_var89": 816,
      "(-": 817,
      "bo": 818,
      "_var0": 819,
      "False": 820,
      "setattr": 821,
      "phi_1": 822,
      "ree": 823,
      "{'": 824,
      "_re": 825,
      "unc": 826,
      "14": 827,
      "ter": 828,
      "file": 829,
      "ampl": 830,
      "_state": 831,
      "rix": 832,
      "os": 833,
      "_var90": 834,
      "_var93": 835,
      "map": 836,
      "ore": 837,
      "aram": 838,
      "_var94": 839,
      "figsize": 840,
      "que": 841,
      "_var95": 842,
      "one": 843,
      "random_state": 844,
      "resul": 845,
      "ce": 846,
      "_var96": 847,
      "selec": 848,
      "_7": 849,
      "ure": 850,
      "_var97": 851,
      "_var81": 852,
      "ma": 853,
      "_var92": 854,
      "matrix": 855,
      "train_test": 856,
      "ath": 857,
      "fil": 858,
      "_var98": 859,
      "range": 860,
      "err": 861,
      "sum": 862,
      "_var99": 863,
      "ord": 864,
      "_d": 865,
      "cv": 866,
      "train_test_split": 867,
      "s_1": 868,
      "_var103": 869,
      "_var100": 870,
      "_var104": 871,
      "18": 872,
      "ense": 873,
      "_var105": 874,
      "append": 875,
      "log": 876,
      "_var106": 877,
      "ision": 878,
      "_func": 879,
      "_var107": 880,
      "ors": 881,
      "13": 882,
      "ype": 883,
      "_df": 884,
      "feature": 885,
      "_var108": 886,
      "inp": 887,
      "_var102": 888,
      "atch": 889,
      "_var109": 890,
      "sing": 891,
      "caler": 892,
      "ull": 893,
      "clf": 894,
      "_matrix": 895,
      "ten": 896,
      "up": 897,
      "19": 898,
      "_var113": 899,
      "_var110": 900,
      "score": 901,
      "gb": 902,
      "labels": 903,
      "_var114": 904,
      "csv": 905,
      "xt": 906,
      "17": 907,
      "read_": 908,
      "tf": 909,
      "nn": 910,
      "_var115": 911,
      "ip": 912,
      "_var116": 913,
      "_8": 914,
      "izer": 915,
      "24": 916,
      "au": 917,
      "_var117": 918,
      "qu": 919,
      "_var118": 920,
      "ory": 921,
      "[:,": 922,
      "_var119": 923,
      "_size": 924,
      "values": 925,
      "_var112": 926,
      "tiv": 927,
      "all": 928,
      "error": 929,
      "_coun": 930,
      "ed_": 931,
      "Frame": 932,
      "_10": 933,
      "ut_": 934,
      "_var120": 935,
      "read_csv": 936,
      "img": 937,
      "None": 938,
      "_value": 939,
      "_var123": 940,
      "model_0": 941,
      "prediction": 942,
      "cat": 943,
      "DataFrame": 944,
      "[]": 945,
      "_var124": 946,
      "min": 947,
      "roces": 948,
      "conf": 949,
      "orest": 950,
      "_var91": 951,
      "xlabel": 952,
      "ylabel": 953,
      "_var125": 954,
      "figure": 955,
      "_featu": 956,
      "dataset": 957,
      "_var126": 958,
      "ray": 959,
      "numpy": 960,
      "str": 961,
      "_var127": 962,
      "ver": 963,
      "_var128": 964,
      "clas": 965,
      "_var129": 966,
      "inplace": 967,
      "_var122": 968,
      "x_train": 969,
      "tivation": 970,
      "proces": 971,
      "ies": 972,
      "_var101": 973,
      "_var130": 974,
      "selection": 975,
      "_var133": 976,
      "df_2": 977,
      "_g": 978,
      "array": 979,
      "_var134": 980,
      "lr": 981,
      "dt": 982,
      "_var135": 983,
      "history": 984,
      "layers": 985,
      "_var136": 986,
      "lib": 987,
      "_var137": 988,
      "low": 989,
      "resh": 990,
      "ict": 991,
      "_var138": 992,
      "23": 993,
      "_var139": 994,
      "new": 995,
      "ast": 996,
      "_var111": 997,
      "et": 998,
      "features": 999,
      "rate": 1000,
      "batch": 1001,
      "row": 1002,
      "cor": 1003,
      "format": 1004,
      "eigh": 1005,
      "_var140": 1006,
      "_var132": 1007,
      "_9": 1008,
      "model_selection": 1009,
      "usion": 1010,
      "_var143": 1011,
      "_var144": 1012,
      "arch": 1013,
      "accuracy_score": 1014,
      "ick": 1015,
      "_var145": 1016,
      "reg": 1017,
      "activation": 1018,
      "_var146": 1019,
      "ph": 1020,
      "_var147": 1021,
      "_var121": 1022,
      "else": 1023,
      "pand": 1024,
      "_var148": 1025,
      "_var149": 1026,
      "26": 1027,
      "imat": 1028,
      "loss": 1029,
      "ist": 1030,
      "old": 1031,
      "Se": 1032,
      "50": 1033,
      "_var150": 1034,
      "_var153": 1035,
      "_features": 1036,
      "Ran": 1037,
      "cores": 1038,
      "_var154": 1039,
      "confusion": 1040,
      "pandas": 1041,
      "_var142": 1042,
      "Random": 1043,
      "df_train": 1044,
      "_var156": 1045,
      "plotlib": 1046,
      "matplotlib": 1047,
      "preproces": 1048,
      "estimat": 1049,
      "_var131": 1050,
      "_var157": 1051,
      "_var155": 1052,
      "roup": 1053,
      "_var158": 1054,
      "}'": 1055,
      "call": 1056,
      "_11": 1057,
      "_transform": 1058,
      "ent": 1059,
      "_var159": 1060,
      "subplot": 1061,
      "x_test": 1062,
      "42": 1063,
      "word": 1064,
      "Regression": 1065,
      "ay": 1066,
      "_var160": 1067,
      "by": 1068,
      "_var163": 1069,
      "jo": 1070,
      "coder": 1071,
      "_var152": 1072,
      "_counts": 1073,
      "_var141": 1074,
      "time": 1075,
      "_var166": 1076,
      "_var164": 1077,
      "Dense": 1078,
      "tar": 1079,
      "orm": 1080,
      "_var167": 1081,
      "_var165": 1082,
      "confusion_matrix": 1083,
      "ho": 1084,
      "no": 1085,
      "_var168": 1086,
      "names": 1087,
      "quen": 1088,
      "_var169": 1089,
      "group": 1090,
      "param": 1091,
      "mse": 1092,
      "cols": 1093,
      "pyplot": 1094,
      "och": 1095,
      "mis": 1096,
      "_var170": 1097,
      "inal": 1098,
      "_var162": 1099,
      "ind": 1100,
      "cision": 1101,
      "_var151": 1102,
      "_var173": 1103,
      "get": 1104,
      "epoch": 1105,
      "data_0": 1106,
      "comp": 1107,
      "fill": 1108,
      "ker": 1109,
      "feature_": 1110,
      "em": 1111,
      "_var176": 1112,
      "_var174": 1113,
      "y_0": 1114,
      "_12": 1115,
      "appl": 1116,
      "_to": 1117,
      "_var175": 1118,
      "null": 1119,
      "ample": 1120,
      "_var177": 1121,
      "Forest": 1122,
      "28": 1123,
      "_var178": 1124,
      "_var179": 1125,
      "_var161": 1126,
      "mar": 1127,
      "64": 1128,
      "_var180": 1129,
      "Regressor": 1130,
      "count": 1131,
      "_var183": 1132,
      "_var172": 1133,
      "RandomForest": 1134,
      "ont": 1135,
      "_b": 1136,
      "_var184": 1137,
      "dir": 1138,
      "_var187": 1139,
      "quar": 1140,
      "path": 1141,
      "linear": 1142,
      "_var185": 1143,
      "und": 1144,
      "preprocessing": 1145,
      "_var186": 1146,
      "iloc": 1147,
      "po": 1148,
      "_var188": 1149,
      "value_counts": 1150,
      "transform": 1151,
      "outp": 1152,
      "_var189": 1153,
      "max_": 1154,
      "_var171": 1155,
      "leg": 1156,
      "ateg": 1157,
      "30": 1158,
      "ing_": 1159,
      "not": 1160,
      "_var190": 1161,
      "ack": 1162,
      "32": 1163,
      "_var182": 1164,
      "_values": 1165,
      "df_3": 1166,
      "dataset_": 1167,
      "data_1": 1168,
      "uni": 1169,
      "i_0": 1170,
      "sort": 1171,
      "_var194": 1172,
      "_valid": 1173,
      "cm": 1174,
      "optim": 1175,
      "_var193": 1176,
      "astype": 1177,
      "_var195": 1178,
      "test_size": 1179,
      "fit_transform": 1180,
      "_var197": 1181,
      "_var198": 1182,
      "x_0": 1183,
      "val_": 1184,
      "_var196": 1185,
      "_var181": 1186,
      "il": 1187,
      "_var199": 1188,
      "legend": 1189,
      "2D": 1190,
      "input_": 1191,
      "ave": 1192,
      "X_": 1193,
      "pro": 1194,
      "ost": 1195,
      "knn": 1196,
      "_var200": 1197,
      "_var192": 1198,
      "r2": 1199,
      "ard": 1200,
      "alph": 1201,
      "_var204": 1202,
      "vi": 1203,
      "plo": 1204,
      "_var205": 1205,
      "text": 1206,
      "ice": 1207,
      "_predic": 1208,
      "_var203": 1209,
      "tial": 1210,
      "_var207": 1211,
      "ize": 1212,
      "_var206": 1213,
      "df_test": 1214,
      "font": 1215,
      "_var208": 1216,
      "ical": 1217,
      "_var191": 1218,
      "bors": 1219,
      "bar": 1220,
      "_var209": 1221,
      "og": 1222,
      "Scaler": 1223,
      "auc": 1224,
      "fillna": 1225,
      "ute": 1226,
      "X_train_0": 1227,
      "umm": 1228,
      "result": 1229,
      "X_0": 1230,
      "St": 1231,
      "best_": 1232,
      "cation": 1233,
      "_var210": 1234,
      "ces": 1235,
      "_var202": 1236,
      "lu": 1237,
      "apply": 1238,
      "reshape": 1239,
      "Con": 1240,
      "model_1": 1241,
      "ff": 1242,
      "_var214": 1243,
      "_var213": 1244,
      "_var215": 1245,
      "_var201": 1246,
      "_var217": 1247,
      "_var216": 1248,
      "isnull": 1249,
      "_var218": 1250,
      "inf": 1251,
      "istic": 1252,
      "x_1": 1253,
      "flow": 1254,
      "_var219": 1255,
      "ken": 1256,
      "lassification": 1257,
      "atter": 1258,
      "ipel": 1259,
      "_var220": 1260,
      "anic": 1261,
      "_var212": 1262,
      "nel": 1263,
      "ta": 1264,
      "tree": 1265,
      "ipeline": 1266,
      "ance": 1267,
      "_var224": 1268,
      "alpha": 1269,
      "_var225": 1270,
      "results": 1271,
      "code": 1272,
      "_var223": 1273,
      "sp": 1274,
      "_var227": 1275,
      "corr": 1276,
      "_var211": 1277,
      "_var226": 1278,
      "norm": 1279,
      "_param": 1280,
      "1_0": 1281,
      "_var228": 1282,
      "_squar": 1283,
      "ector": 1284,
      "ipy": 1285,
      "_var229": 1286,
      "xgb": 1287,
      "ategor": 1288,
      "unique": 1289,
      "round": 1290,
      "_var230": 1291,
      "fontsize": 1292,
      "_var222": 1293,
      "tions": 1294,
      "data_": 1295,
      "input": 1296,
      "CV": 1297,
      "tensor": 1298,
      "_tit": 1299,
      "27": 1300,
      "groupby": 1301,
      "plot_": 1302,
      "_var233": 1303,
      "batch_size": 1304,
      "classification": 1305,
      "_var234": 1306,
      "_var221": 1307,
      "valid": 1308,
      "scaler": 1309,
      "_var237": 1310,
      "_var236": 1311,
      "_var235": 1312,
      "_var238": 1313,
      "gen": 1314,
      "scatter": 1315,
      "_var239": 1316,
      "so": 1317,
      "_path": 1318,
      "ext": 1319,
      "s_2": 1320,
      "_squared_": 1321,
      "_var240": 1322,
      "_var232": 1323,
      "linear_model": 1324,
      "df_4": 1325,
      "cro": 1326,
      "models": 1327,
      "concat": 1328,
      "Tree": 1329,
      "_var231": 1330,
      "mean_squared_": 1331,
      "ings": 1332,
      "lin": 1333,
      "er_": 1334,
      "otal": 1335,
      "y_test_0": 1336,
      "Log": 1337,
      "_report": 1338,
      "_var243": 1339,
      "ses": 1340,
      "_var244": 1341,
      "_var245": 1342,
      "precision": 1343,
      "sen": 1344,
      "y_train_0": 1345,
      "_var246": 1346,
      "_var247": 1347,
      "_var249": 1348,
      "_var248": 1349,
      ":]": 1350,
      "_13": 1351,
      "_var242": 1352,
      "_var250": 1353,
      "output": 1354,
      "X_test_0": 1355,
      "SV": 1356,
      "rid_": 1357,
      "grid": 1358,
      "tensorflow": 1359,
      "abs": 1360,
      "dist": 1361,
      "99": 1362,
      "mean_squared_error": 1363,
      "titanic": 1364,
      "_var241": 1365,
      "ted": 1366,
      "svm": 1367,
      "_scal": 1368,
      "mble": 1369,
      "_var253": 1370,
      "ame": 1371,
      "use": 1372,
      "_var254": 1373,
      "_var255": 1374,
      "Line": 1375,
      "Dec": 1376,
      "info": 1377,
      "classification_report": 1378,
      "ensemble": 1379,
      "ith": 1380,
      "_var257": 1381,
      "_var256": 1382,
      "join": 1383,
      "_var258": 1384,
      "par": 1385,
      "gra": 1386,
      "coe": 1387,
      "replace": 1388,
      "En": 1389,
      "Logistic": 1390,
      "_var259": 1391,
      "copy": 1392,
      "be": 1393,
      "_var252": 1394,
      "ummies": 1395,
      "_scores": 1396,
      "Linear": 1397,
      "train_data": 1398,
      "kernel": 1399,
      "ir": 1400,
      "Decision": 1401,
      "lat": 1402,
      "LogisticRegression": 1403,
      "epochs": 1404,
      "desc": 1405,
      "_var251": 1406,
      "men": 1407,
      "search": 1408,
      "RandomForestClassifier": 1409,
      "_var260": 1410,
      "idth": 1411,
      "erc": 1412,
      "axes": 1413,
      "rec": 1414,
      "andard": 1415,
      "thon": 1416,
      "f1": 1417,
      "_14": 1418,
      "emb": 1419,
      "DecisionTree": 1420,
      "75": 1421,
      "40": 1422,
      "_var263": 1423,
      "idx": 1424,
      "_title": 1425,
      "_var264": 1426,
      "_var266": 1427,
      "_var265": 1428,
      "column": 1429,
      "cmap": 1430,
      "11": 1431,
      "_var267": 1432,
      "_var268": 1433,
      "estimators": 1434,
      "sample": 1435,
      "_var262": 1436,
      "_var269": 1437,
      "ag": 1438,
      "_var270": 1439,
      "Conv": 1440,
      "ig": 1441,
      "2_0": 1442,
      "dep": 1443,
      "df_5": 1444,
      "recall": 1445,
      "_var261": 1446,
      "mer": 1447,
      "exp": 1448,
      "_var273": 1449,
      "Standard": 1450,
      "_var275": 1451,
      "StandardScaler": 1452,
      "_var274": 1453,
      "imp": 1454,
      "_list": 1455,
      "mission": 1456,
      "subplots": 1457,
      "_var276": 1458,
      "orn": 1459,
      ")(": 1460,
      ")]": 1461,
      "iter": 1462,
      "comb": 1463,
      "i_1": 1464,
      "60": 1465,
      "_var277": 1466,
      "grid_": 1467,
      "_var278": 1468,
      "seab": 1469,
      "seaborn": 1470,
      "Encoder": 1471,
      "_var272": 1472,
      "warn": 1473,
      "back": 1474,
      "predictions": 1475,
      "90": 1476,
      "able": 1477,
      "_var271": 1478,
      "Search": 1479,
      "cross": 1480,
      "bin": 1481,
      "split": 1482,
      "Mo": 1483,
      "_var279": 1484,
      "_var280": 1485,
      "data_2": 1486,
      "warnings": 1487,
      "era": 1488,
      "Max": 1489,
      "45": 1490,
      "dict": 1491,
      "ear": 1492,
      "verbo": 1493,
      "_model_0": 1494,
      "_var283": 1495,
      "run": 1496,
      "Y_train": 1497,
      "Grid": 1498,
      "_var285": 1499,
      "ini": 1500,
      "GB": 1501,
      "ly": 1502,
      "optimizer": 1503,
      "ted_": 1504,
      "target": 1505,
      "_var284": 1506,
      "22": 1507,
      "verbose": 1508,
      "train_0": 1509,
      "f_": 1510,
      "mode": 1511,
      "_var286": 1512,
      "_var282": 1513,
      "depth": 1514,
      "_var288": 1515,
      "_var287": 1516,
      "filename": 1517,
      "descri": 1518,
      "_var281": 1519,
      "rage": 1520,
      "SearchCV": 1521,
      "_pro": 1522,
      "item": 1523,
      "dis": 1524,
      "validation": 1525,
      "_var289": 1526,
      "_var290": 1527,
      "_15": 1528,
      "ipython": 1529,
      "get_ipython": 1530,
      "n_estimators": 1531,
      "width": 1532,
      "box": 1533,
      "ategorical": 1534,
      "000": 1535,
      "ding": 1536,
      "amples": 1537,
      "ile": 1538,
      "_var293": 1539,
      "estimator": 1540,
      "ca": 1541,
      "model_2": 1542,
      "stat": 1543,
      "_var294": 1544,
      "classifier": 1545,
      "sort_values": 1546,
      "_var295": 1547,
      "eval": 1548,
      "ob": 1549,
      "_error": 1550,
      "y_1": 1551,
      "clu": 1552,
      "da": 1553,
      "y_t": 1554,
      "_var291": 1555,
      "_var298": 1556,
      "_var292": 1557,
      "_reg": 1558,
      "KN": 1559,
      "_var296": 1560,
      "numer": 1561,
      "_var297": 1562,
      "_m": 1563,
      "to_c": 1564,
      "_grid": 1565,
      "_var300": 1566,
      "_var299": 1567,
      "ew": 1568,
      "total": 1569,
      "date": 1570,
      "num_": 1571,
      "33": 1572,
      "tex": 1573,
      "x_2": 1574,
      "mean_": 1575,
      "_var303": 1576,
      "_var304": 1577,
      "final": 1578,
      "_scaled": 1579,
      "neigh": 1580,
      "scores": 1581,
      "lean": 1582,
      "_auc": 1583,
      "class": 1584,
      "_var305": 1585,
      "loat": 1586,
      "self_2": 1587,
      "ool": 1588,
      "_var302": 1589,
      "_var301": 1590,
      "heat": 1591,
      "lim": 1592,
      "Model": 1593,
      "quential": 1594,
      "token": 1595,
      "80": 1596,
      "ices": 1597,
      "_var307": 1598,
      "_var308": 1599,
      "dummies": 1600,
      "_var306": 1601,
      "ask": 1602,
      "combine": 1603,
      "arg": 1604,
      "class_": 1605,
      "_var309": 1606,
      "_clas": 1607,
      "_var310": 1608,
      "rmse": 1609,
      "heatmap": 1610,
      "nb": 1611,
      "xtick": 1612,
      "Sequential": 1613,
      "_var313": 1614,
      "_var315": 1615,
      "_var314": 1616,
      "_to_": 1617,
      "_var316": 1618,
      "var": 1619,
      "_var312": 1620,
      "df_6": 1621,
      "_var311": 1622,
      "_var317": 1623,
      "_name": 1624,
      "zer": 1625,
      "_var318": 1626,
      "merge": 1627,
      "sequen": 1628,
      "35": 1629,
      "describe": 1630,
      "_var320": 1631,
      "_var319": 1632,
      "SVC": 1633,
      "abel": 1634,
      "key": 1635,
      "_ma": 1636,
      "Drop": 1637,
      "Label": 1638,
      "AT": 1639,
      "X_1": 1640,
      "roc_auc": 1641,
      "70": 1642,
      "Conv2D": 1643,
      "cross_val": 1644,
      "yle": 1645,
      "rt": 1646,
      "i_2": 1647,
      "play": 1648,
      "encode": 1649,
      "_var324": 1650,
      "Dropout": 1651,
      "x_": 1652,
      "normal": 1653,
      "test_data": 1654,
      "_var323": 1655,
      "set_title": 1656,
      "LinearRegression": 1657,
      "_var325": 1658,
      "_var321": 1659,
      "all_data": 1660,
      "std": 1661,
      "_var326": 1662,
      "step": 1663,
      "_var327": 1664,
      "_var322": 1665,
      "Bo": 1666,
      "95": 1667,
      "_var328": 1668,
      "uff": 1669,
      "_var329": 1670,
      "_var330": 1671,
      "float": 1672,
      "id_": 1673,
      "temp": 1674,
      "48": 1675,
      "t_0": 1676,
      "t_2": 1677,
      "ypes": 1678,
      "bs": 1679,
      "star": 1680,
      "_index": 1681,
      "GridSearchCV": 1682,
      "_var333": 1683,
      "78": 1684,
      "ion": 1685,
      "we": 1686,
      "_var335": 1687,
      "_var334": 1688,
      "_var331": 1689,
      "predict_": 1690,
      "_var336": 1691,
      "_var332": 1692,
      "65": 1693,
      "ime": 1694,
      "_var337": 1695,
      "_var338": 1696,
      "raw": 1697,
      "d_0": 1698,
      "Co": 1699,
      "ax_0": 1700,
      "den": 1701,
      "_var340": 1702,
      "_var339": 1703,
      "ual": 1704,
      "r2_score": 1705,
      "average": 1706,
      "best_param": 1707,
      "y_pred_0": 1708,
      "ters": 1709,
      "_sub": 1710,
      "asc": 1711,
      "submission": 1712,
      "eighbors": 1713,
      "ending": 1714,
      "_var341": 1715,
      "frame": 1716,
      "_var343": 1717,
      "DecisionTreeClassifier": 1718,
      "ls": 1719,
      "annot": 1720,
      "Pool": 1721,
      "_var345": 1722,
      "_var344": 1723,
      "ectorizer": 1724,
      "_var342": 1725,
      "_var346": 1726,
      "olute": 1727,
      "_var348": 1728,
      "_16": 1729,
      "_var347": 1730,
      "om": 1731,
      "KNeighbors": 1732,
      "y_val": 1733,
      "absolute": 1734,
      "ascending": 1735,
      "scal": 1736,
      "torch": 1737,
      "_samples": 1738,
      "_var349": 1739,
      "train_df": 1740,
      "_var350": 1741,
      "),": 1742,
      "images": 1743,
      "encoder": 1744,
      "98": 1745,
      "test_0": 1746,
      "'}": 1747,
      "weigh": 1748,
      "hat": 1749,
      "mon": 1750,
      "max_depth": 1751,
      "uffle": 1752,
      "av": 1753,
      "200": 1754,
      "_var353": 1755,
      "_df_0": 1756,
      "layer": 1757,
      "_var352": 1758,
      "cross_val_score": 1759,
      "_var351": 1760,
      "_var354": 1761,
      "68": 1762,
      "_var355": 1763,
      "neighbors": 1764,
      "hue": 1765,
      "target_": 1766,
      "_var356": 1767,
      "c_0": 1768,
      "us": 1769,
      "_func0": 1770,
      "ances": 1771,
      "Boost": 1772,
      "los": 1773,
      "_pre": 1774,
      "seed": 1775,
      "_var357": 1776,
      "_var358": 1777,
      "tick": 1778,
      "compile": 1779,
      "_var359": 1780,
      "_var360": 1781,
      "embed": 1782,
      "ange": 1783,
      "05": 1784,
      "mean_absolute": 1785,
      "layout": 1786,
      "34": 1787,
      "df_7": 1788,
      "_clf": 1789,
      "_S": 1790,
      "_sv": 1791,
      "38": 1792,
      "_var362": 1793,
      "_var361": 1794,
      "train_1": 1795,
      "_var363": 1796,
      "_cv": 1797,
      "_var364": 1798,
      "_var365": 1799,
      "scor": 1800,
      "dow": 1801,
      "latten": 1802,
      "_weigh": 1803,
      "_var366": 1804,
      "**": 1805,
      "_var367": 1806,
      "kind": 1807,
      "_var368": 1808,
      "sq": 1809,
      "scoring": 1810,
      "_var369": 1811,
      "_var370": 1812,
      "reset_index": 1813,
      "Y_test": 1814,
      "ity": 1815,
      "oc": 1816,
      "adding": 1817,
      "proba": 1818,
      "01": 1819,
      "open": 1820,
      "128": 1821,
      "_var373": 1822,
      "rati": 1823,
      "_var371": 1824,
      "_var372": 1825,
      "dtypes": 1826,
      "_var375": 1827,
      "_var374": 1828,
      "X_train_1": 1829,
      "_cur": 1830,
      "boost": 1831,
      "_mag": 1832,
      "cv2": 1833,
      "_var376": 1834,
      "mean_absolute_error": 1835,
      "wor": 1836,
      "ing_rate": 1837,
      "_var378": 1838,
      "get_dummies": 1839,
      "_var377": 1840,
      "_var379": 1841,
      "to_csv": 1842,
      "ren": 1843,
      "KNeighborsClassifier": 1844,
      "erator": 1845,
      "_magic": 1846,
      "grid_search": 1847,
      "f1_score": 1848,
      "_var380": 1849,
      "padding": 1850,
      "_col": 1851,
      "run_": 1852,
      "rot": 1853,
      "_var383": 1854,
      "ume": 1855,
      "_var381": 1856,
      "96": 1857,
      "_var382": 1858,
      "y_pred_": 1859,
      "text_": 1860,
      "_18": 1861,
      "_predictions": 1862,
      "countplot": 1863,
      "_var384": 1864,
      "reshold": 1865,
      "_var385": 1866,
      "sy": 1867,
      "_17": 1868,
      "stats": 1869,
      "_word": 1870,
      "mask": 1871,
      "c_": 1872,
      "1000": 1873,
      "of": 1874,
      "indices": 1875,
      "ple": 1876,
      "learning_rate": 1877,
      "df_8": 1878,
      "agg": 1879,
      "LabelEncoder": 1880,
      "are": 1881,
      "x_3": 1882,
      "imshow": 1883,
      "_var386": 1884,
      "X_val": 1885,
      "_y": 1886,
      "_var387": 1887,
      "fir": 1888,
      "sig": 1889,
      "bins": 1890,
      "_var388": 1891,
      "lasso": 1892,
      "ve_": 1893,
      "37": 1894,
      "NB": 1895,
      "load_": 1896,
      "save": 1897,
      "medi": 1898,
      "_var389": 1899,
      "obj": 1900,
      "heigh": 1901,
      "ght_": 1902,
      "go": 1903,
      "X_2": 1904,
      "shuffle": 1905,
      "_var390": 1906,
      "97": 1907,
      "evalu": 1908,
      "MaxPool": 1909,
      "!=": 1910,
      "df1": 1911,
      "mae": 1912,
      "ial": 1913,
      "ise": 1914,
      "_var392": 1915,
      "_var391": 1916,
      "36": 1917,
      "_var394": 1918,
      "_var393": 1919,
      "make": 1920,
      "missing": 1921,
      "vel": 1922,
      "filenames": 1923,
      "Im": 1924,
      "255": 1925,
      "_var395": 1926,
      "param_grid": 1927,
      "data_3": 1928,
      "_var397": 1929,
      "ridge": 1930,
      "sqrt": 1931,
      "_var398": 1932,
      "SE": 1933,
      "_var396": 1934,
      "top": 1935,
      "cr": 1936,
      "_20": 1937,
      "_var399": 1938,
      "_var400": 1939,
      "uti": 1940,
      "xticks": 1941,
      "clf_0": 1942,
      "X_train_": 1943,
      "importances": 1944,
      "summar": 1945,
      "XGB": 1946,
      "RandomForestRegressor": 1947,
      "callback": 1948,
      "_var405": 1949,
      "94": 1950,
      "_var401": 1951,
      "_var402": 1952,
      "_var404": 1953,
      "_curve": 1954,
      "uc": 1955,
      "_var403": 1956,
      "self_3": 1957,
      "y_true": 1958,
      "_var406": 1959,
      "dim": 1960,
      "ader": 1961,
      "input_shape": 1962,
      "_var407": 1963,
      "_var408": 1964,
      "umerate": 1965,
      "enumerate": 1966,
      "model_3": 1967,
      "line_magic": 1968,
      "ect": 1969,
      "run_line_magic": 1970,
      "_var410": 1971,
      "Train": 1972,
      "dtype": 1973,
      "_var409": 1974,
      "_dict": 1975,
      "regres": 1976,
      "_data_0": 1977,
      "_df_1": 1978,
      "_cols": 1979,
      "rotation": 1980,
      "arange": 1981,
      "fidf": 1982,
      "with": 1983,
      "dirname": 1984,
      "words": 1985,
      "sian": 1986,
      "_var411": 1987,
      "_var413": 1988,
      "_var412": 1989,
      "filter": 1990,
      "_var415": 1991,
      "_var414": 1992,
      "ust": 1993,
      "_time": 1994,
      "<=": 1995,
      "nl": 1996,
      "gth": 1997,
      "Test": 1998,
      "_var416": 1999,
      "numeric": 2000,
      "_var418": 2001,
      "_var417": 2002,
      "load": 2003,
      "od": 2004,
      "boxplot": 2005,
      "_prediction": 2006,
      "_var420": 2007,
      "lgb": 2008,
      "_var419": 2009,
      "rows": 2010,
      "chec": 2011,
      "uter": 2012,
      "pi": 2013,
      "pol": 2014,
      "ization": 2015,
      "median": 2016,
      "s_5": 2017,
      "train_2": 2018,
      "_var421": 2019,
      "stem": 2020,
      "Norm": 2021,
      "its": 2022,
      "_tree": 2023,
      "aus": 2024,
      "_var424": 2025,
      "67": 2026,
      "_var422": 2027,
      "label_": 2028,
      "_var423": 2029,
      "_var425": 2030,
      "ent_": 2031,
      "_var426": 2032,
      "marker": 2033,
      "check": 2034,
      "_var427": 2035,
      "using": 2036,
      "Image": 2037,
      "it_": 2038,
      "_var428": 2039,
      "m_": 2040,
      "tpr": 2041,
      "y_2": 2042,
      "_var430": 2043,
      "radi": 2044,
      "zip": 2045,
      "df2": 2046,
      "_var429": 2047,
      "categorical": 2048,
      "nan": 2049,
      "full": 2050,
      "length": 2051,
      "fpr": 2052,
      "alet": 2053,
      "embedding": 2054,
      "stop": 2055,
      "_rf": 2056,
      "_full": 2057,
      "alette": 2058,
      "n_jo": 2059,
      "clude": 2060,
      "_var433": 2061,
      "_text": 2062,
      "_var431": 2063,
      "housing": 2064,
      "_var432": 2065,
      "_var434": 2066,
      "_var435": 2067,
      "21": 2068,
      "_var436": 2069,
      "coef": 2070,
      "best_params_": 2071,
      "clean": 2072,
      "i_3": 2073,
      "Y_pred": 2074,
      "_po": 2075,
      "_var437": 2076,
      "_var438": 2077,
      "500": 2078,
      "_19": 2079,
      "dropna": 2080,
      "utils": 2081,
      "n_jobs": 2082,
      "ster": 2083,
      "aussian": 2084,
      "callbacks": 2085,
      "_test_0": 2086,
      "_P": 2087,
      "_var440": 2088,
      "logreg": 2089,
      "_var439": 2090,
      "X_valid": 2091,
      "tk": 2092,
      "conv": 2093,
      "pipeline": 2094,
      "feat": 2095,
      "s_3": 2096,
      "Fold": 2097,
      "y_train_1": 2098,
      "ate_": 2099,
      "initial": 2100,
      "ing2D": 2101,
      "77": 2102,
      "summary": 2103,
      "_var443": 2104,
      "Coun": 2105,
      "_var441": 2106,
      "X_test_1": 2107,
      "IN": 2108,
      "85": 2109,
      "_var444": 2110,
      "_var445": 2111,
      "_var442": 2112,
      "xg": 2113,
      "normalize": 2114,
      "sequences": 2115,
      "roc_auc_score": 2116,
      "_var446": 2117,
      "sm": 2118,
      "_var447": 2119,
      "parame": 2120,
      "_var448": 2121,
      "wee": 2122,
      "predict_proba": 2123,
      "cv_": 2124,
      "_var449": 2125,
      "_test_": 2126,
      "try": 2127,
      "_var450": 2128,
      "44": 2129,
      "avg": 2130,
      "66": 2131,
      "ml": 2132,
      "display": 2133,
      "fit_": 2134,
      "izers": 2135,
      "tile": 2136,
      "stri": 2137,
      "argmax": 2138,
      "IM": 2139,
      "sl": 2140,
      "_var453": 2141,
      "_var451": 2142,
      "r_0": 2143,
      "_var452": 2144,
      "_var454": 2145,
      "barplot": 2146,
      "KFold": 2147,
      "_var455": 2148,
      "evaluate": 2149,
      ">=": 2150,
      "ud": 2151,
      "Normal": 2152,
      "_id": 2153,
      "order": 2154,
      "df_9": 2155,
      "output_": 2156,
      "result_": 2157,
      "_var456": 2158,
      "_var457": 2159,
      "Ac": 2160,
      "ents": 2161,
      "_var458": 2162,
      "view": 2163,
      "training": 2164,
      "emp": 2165,
      "ates": 2166,
      "lst": 2167,
      "_var460": 2168,
      "_train_0": 2169,
      "_var459": 2170,
      "ment": 2171,
      "lea": 2172,
      "m_0": 2173,
      "threshold": 2174,
      "_var463": 2175,
      "_var461": 2176,
      "_var464": 2177,
      "last": 2178,
      "senten": 2179,
      "_var462": 2180,
      "distplot": 2181,
      "height": 2182,
      "_var465": 2183,
      "_var468": 2184,
      "params": 2185,
      "ft": 2186,
      "x_4": 2187,
      "a_": 2188,
      "_var466": 2189,
      "29": 2190,
      "valid_": 2191,
      "_var467": 2192,
      "precision_score": 2193,
      "recall_score": 2194,
      "dev": 2195,
      "preds": 2196,
      "start": 2197,
      "_train_": 2198,
      "ax_1": 2199,
      "_func1": 2200,
      "_var469": 2201,
      "iris": 2202,
      "cast": 2203,
      "_feature": 2204,
      "55": 2205,
      "outli": 2206,
      "_var470": 2207,
      "bi": 2208,
      "LR": 2209,
      "39": 2210,
      "y_test_1": 2211,
      "com": 2212,
      "self_4": 2213,
      "Pipeline": 2214,
      "Batch": 2215,
      "ms": 2216,
      "_var471": 2217,
      "_var472": 2218,
      "88": 2219,
      "_var473": 2220,
      "space": 2221,
      "cur": 2222,
      "cre": 2223,
      "_var474": 2224,
      "extrac": 2225,
      "out_": 2226,
      "tolist": 2227,
      "per": 2228,
      "_var475": 2229,
      "perc": 2230,
      "_var477": 2231,
      "_var476": 2232,
      "Ad": 2233,
      "_var478": 2234,
      "nltk": 2235,
      "day": 2236,
      "air": 2237,
      "style": 2238,
      "slice": 2239,
      "Ser": 2240,
      "_var479": 2241,
      "_var480": 2242,
      "y_pred_1": 2243,
      "ult": 2244,
      "x_train_0": 2245,
      "tight_": 2246,
      "tight_layout": 2247,
      "RF": 2248,
      "CH": 2249,
      "Col": 2250,
      "fig_0": 2251,
      "labels_0": 2252,
      "_h": 2253,
      "_tar": 2254,
      "_in": 2255,
      "ax1": 2256,
      "_var481": 2257,
      "impute": 2258,
      "001": 2259,
      "predicted": 2260,
      "radient": 2261,
      "test_df": 2262,
      "des": 2263,
      "results_": 2264,
      "inter": 2265,
      "my": 2266,
      "importance": 2267,
      "_var484": 2268,
      "_var483": 2269,
      "_var482": 2270,
      "_var485": 2271,
      "coef_": 2272,
      "_forest": 2273,
      "_dataset": 2274,
      "_var486": 2275,
      "fold": 2276,
      "test_1": 2277,
      "_date": 2278,
      "Series": 2279,
      "ict_": 2280,
      "47": 2281,
      "count_": 2282,
      "palette": 2283,
      "X_train_2": 2284,
      "rel": 2285,
      "_pipeline": 2286,
      "'{": 2287,
      "IZ": 2288,
      "net": 2289,
      "ber": 2290,
      "orig": 2291,
      "year": 2292,
      "ase": 2293,
      "regressor": 2294,
      "set_ylabel": 2295,
      "_var487": 2296,
      "_var488": 2297,
      "_D": 2298,
      "256": 2299,
      "tered": 2300,
      "du": 2301,
      "y_valid": 2302,
      "Vectorizer": 2303,
      "ds": 2304,
      "bu": 2305,
      "kernel_size": 2306,
      "_var489": 2307,
      "scale": 2308,
      "_var490": 2309,
      "Normalization": 2310,
      "model_4": 2311,
      "Gradient": 2312,
      "ary": 2313,
      "ingClassifier": 2314,
      "IZE": 2315,
      "indow": 2316,
      "_words": 2317,
      "_var491": 2318,
      "mt": 2319,
      "_final": 2320,
      "urvi": 2321,
      "_var494": 2322,
      "_var492": 2323,
      "_var493": 2324,
      "_var496": 2325,
      "linewidth": 2326,
      "validation_data": 2327,
      "data_4": 2328,
      "first": 2329,
      "_var495": 2330,
      "col_0": 2331,
      "))": 2332,
      "Flatten": 2333,
      "filtered": 2334,
      "rand": 2335,
      "predicted_": 2336,
      "roc_curve": 2337,
      "_var497": 2338,
      "_o": 2339,
      "_var498": 2340,
      "point": 2341,
      "zeros": 2342,
      "_classifier": 2343,
      "inputs": 2344,
      "_var500": 2345,
      "_fold": 2346,
      "train_y": 2347,
      "_var499": 2348,
      "med": 2349,
      "pla": 2350,
      "ax_2": 2351,
      "set_xlabel": 2352,
      "ipe": 2353,
      "BatchNormalization": 2354,
      "_var503": 2355,
      "init_": 2356,
      "_var502": 2357,
      "_cat": 2358,
      "MaxPooling2D": 2359,
      "_var501": 2360,
      "i_4": 2361,
      "X_3": 2362,
      "cep": 2363,
      "pick": 2364,
      "1_1": 2365,
      "_var504": 2366,
      "GradientBoost": 2367,
      "_var505": 2368,
      "read": 2369,
      "lower": 2370,
      "rc": 2371,
      "CA": 2372,
      "isna": 2373,
      "neg": 2374,
      "_var506": 2375,
      "lr_0": 2376,
      "best_score": 2377,
      "31": 2378,
      "items": 2379,
      "ytick": 2380,
      "_var507": 2381,
      "true": 2382,
      "_var508": 2383,
      "act": 2384,
      "_var510": 2385,
      "_var509": 2386,
      "aut": 2387,
      "kde": 2388,
      "_pr": 2389,
      "include": 2390,
      "_type": 2391,
      "_predict": 2392,
      "r_": 2393,
      "kn": 2394,
      "decision": 2395,
      "3_0": 2396,
      "{}": 2397,
      "_var511": 2398,
      "_columns": 2399,
      "weights": 2400,
      "_var512": 2401,
      "_prob": 2402,
      "_var514": 2403,
      "x_test_0": 2404,
      "_with": 2405,
      "imple": 2406,
      "trans": 2407,
      "Min": 2408,
      "ravel": 2409,
      "_var513": 2410,
      "_var515": 2411,
      "listdir": 2412,
      "46": 2413,
      "min_samples": 2414,
      "fic": 2415,
      "ular": 2416,
      "_SIZE": 2417,
      "self_5": 2418,
      "rat": 2419,
      "word_": 2420,
      "_var517": 2421,
      "_var516": 2422,
      "yes": 2423,
      "_var518": 2424,
      "classes": 2425,
      "datetime": 2426,
      "gg": 2427,
      "_var520": 2428,
      "numerical": 2429,
      "clo": 2430,
      "su": 2431,
      "_cor": 2432,
      "_clean": 2433,
      "_var519": 2434,
      "upd": 2435,
      "pca": 2436,
      "[(": 2437,
      "df_10": 2438,
      "TE": 2439,
      "eta": 2440,
      "_var521": 2441,
      "_df_2": 2442,
      "new_": 2443,
      "yhat": 2444,
      "tive": 2445,
      "scipy": 2446,
      "_var522": 2447,
      "graph": 2448,
      "feature_importances": 2449,
      "Featu": 2450,
      "_var525": 2451,
      "cont": 2452,
      "_var524": 2453,
      "_var523": 2454,
      "_var526": 2455,
      "300": 2456,
      "_var527": 2457,
      "s_6": 2458,
      "_var528": 2459,
      "orecast": 2460,
      "150": 2461,
      "k_": 2462,
      "lon": 2463,
      "_var529": 2464,
      "Net": 2465,
      "month": 2466,
      "Gaussian": 2467,
      "sequence": 2468,
      "_weight": 2469,
      "pool": 2470,
      "_per": 2471,
      "seri": 2472,
      "ax2": 2473,
      "_var530": 2474,
      "xgboost": 2475,
      "to_": 2476,
      "ercep": 2477,
      "_count": 2478,
      "son": 2479,
      "enerator": 2480,
      "_var535": 2481,
      "One": 2482,
      "here": 2483,
      "select_": 2484,
      "rename": 2485,
      "train_3": 2486,
      "_var532": 2487,
      "sol": 2488,
      "LST": 2489,
      "_var534": 2490,
      "fmt": 2491,
      "224": 2492,
      "quan": 2493,
      "_vector": 2494,
      "race": 2495,
      "ft_": 2496,
      "forest": 2497,
      "_var536": 2498,
      "_var531": 2499,
      "Inp": 2500,
      "_var533": 2501,
      "_var538": 2502,
      "Transform": 2503,
      "colors": 2504,
      "ylim": 2505,
      "_var537": 2506,
      "ulti": 2507,
      "LSTM": 2508,
      "dt_": 2509,
      "MinMax": 2510,
      "actor": 2511,
      "_var540": 2512,
      "where": 2513,
      "pred_": 2514,
      "old_": 2515,
      "x_5": 2516,
      "_var539": 2517,
      "iable": 2518,
      "_token": 2519,
      "dataframe": 2520,
      "pickle": 2521,
      "y_train_": 2522,
      "ign": 2523,
      "test_2": 2524,
      "encoded": 2525,
      "ties": 2526,
      "data_5": 2527,
      "_var541": 2528,
      "_var542": 2529,
      "_var543": 2530,
      "char": 2531,
      "series": 2532,
      "type": 2533,
      "MinMaxScaler": 2534,
      "_var544": 2535,
      "_var545": 2536,
      "In": 2537,
      "idge": 2538,
      "Input": 2539,
      "X_test_": 2540,
      "_loss": 2541,
      "hid": 2542,
      "_var546": 2543,
      "ll": 2544,
      "ensor": 2545,
      "ans": 2546,
      "_var547": 2547,
      "87": 2548,
      "best_estimator": 2549,
      "49": 2550,
      "lag": 2551,
      "data_train": 2552,
      "_mean": 2553,
      "_var548": 2554,
      "ales": 2555,
      "_var550": 2556,
      "datasets": 2557,
      "_preds": 2558,
      "_var549": 2559,
      "keys": 2560,
      "optimizers": 2561,
      "Transformer": 2562,
      "errors": 2563,
      "ocab": 2564,
      "f_0": 2565,
      "_tr": 2566,
      "stack": 2567,
      "direc": 2568,
      "Adam": 2569,
      "DecisionTreeRegressor": 2570,
      "svc": 2571,
      "_params": 2572,
      "_regres": 2573,
      "bayes": 2574,
      "ct": 2575,
      "ML": 2576,
      "_var551": 2577,
      "img_": 2578,
      "():": 2579,
      "OL": 2580,
      "_var554": 2581,
      "_var552": 2582,
      "remo": 2583,
      "_var555": 2584,
      "_var553": 2585,
      "ols": 2586,
      "pping": 2587,
      "n_neighbors": 2588,
      "NN": 2589,
      "dm": 2590,
      "ks": 2591,
      "iow": 2592,
      "ale": 2593,
      "_svm": 2594,
      "ID": 2595,
      "_var556": 2596,
      "Imp": 2597,
      "steps": 2598,
      "prop": 2599,
      "_var557": 2600,
      "estyle": 2601,
      "house": 2602,
      "OR": 2603,
      "_var558": 2604,
      "best_model": 2605,
      "req": 2606,
      "_classes": 2607,
      "linestyle": 2608,
      "and_": 2609,
      "filterwarnings": 2610,
      "ty": 2611,
      "_var559": 2612,
      "self_6": 2613,
      "relation": 2614,
      "LE": 2615,
      "filters": 2616,
      "car": 2617,
      "_var560": 2618,
      "_trans": 2619,
      "ized": 2620,
      "ampled": 2621,
      "nai": 2622,
      "69": 2623,
      "face": 2624,
      "dataset_0": 2625,
      "sentence": 2626,
      "y_pred_2": 2627,
      "_var562": 2628,
      "model_5": 2629,
      "train_X": 2630,
      "_var565": 2631,
      "random_forest": 2632,
      "Pred": 2633,
      "_var561": 2634,
      "_var564": 2635,
      "_var563": 2636,
      "feature_names": 2637,
      "ved": 2638,
      "Ridge": 2639,
      "oly": 2640,
      "_splits": 2641,
      "_proba": 2642,
      "Imputer": 2643,
      "_var566": 2644,
      "_var567": 2645,
      "ort_": 2646,
      "58": 2647,
      "plic": 2648,
      "fix": 2649,
      "TP": 2650,
      "_var568": 2651,
      "o_": 2652,
      "rf_model": 2653,
      "43": 2654,
      "arr": 2655,
      "_var570": 2656,
      "how": 2657,
      "tq": 2658,
      "acc_": 2659,
      "_var569": 2660,
      "tokenizer": 2661,
      "parameters": 2662,
      "best_estimator_": 2663,
      "X_test_2": 2664,
      "add_": 2665,
      "system": 2666,
      "_datetime": 2667,
      "ication": 2668,
      "RA": 2669,
      "select_dtypes": 2670,
      "57": 2671,
      "y_test_pred": 2672,
      "p_0": 2673,
      "_var572": 2674,
      "_var571": 2675,
      "vot": 2676,
      "__init_": 2677,
      "rateg": 2678,
      "_var573": 2679,
      "_var574": 2680,
      "Hot": 2681,
      "__init__": 2682,
      "_var575": 2683,
      "_var577": 2684,
      "_class": 2685,
      "2_1": 2686,
      "accuracy_": 2687,
      "ategory": 2688,
      "_var576": 2689,
      "uce": 2690,
      "knn_0": 2691,
      "pati": 2692,
      "_var580": 2693,
      "skew": 2694,
      "_de": 2695,
      "ght": 2696,
      "actual": 2697,
      "_var578": 2698,
      "application": 2699,
      "_func2": 2700,
      "GaussianNB": 2701,
      "older": 2702,
      "_df_3": 2703,
      "train_df_1": 2704,
      "a_0": 2705,
      "_var579": 2706,
      "_labels": 2707,
      "d_1": 2708,
      "_feat": 2709,
      "x1": 2710,
      "sign": 2711,
      "self_7": 2712,
      "s_7": 2713,
      "amma": 2714,
      "edge": 2715,
      "aly": 2716,
      "iterion": 2717,
      "_clu": 2718,
      "fig_1": 2719,
      "_var581": 2720,
      "_var585": 2721,
      "lm": 2722,
      "_var583": 2723,
      "window": 2724,
      "_var582": 2725,
      "n_splits": 2726,
      "_var586": 2727,
      "lab": 2728,
      "wal": 2729,
      "units": 2730,
      "_var584": 2731,
      "_var588": 2732,
      "_var587": 2733,
      "file_path": 2734,
      "train_index": 2735,
      "ix": 2736,
      "self_1": 2737,
      "_temp": 2738,
      ",)": 2739,
      "OneHot": 2740,
      "_num": 2741,
      "user": 2742,
      "xlim": 2743,
      "n_0": 2744,
      "_var590": 2745,
      "_image": 2746,
      "_step": 2747,
      "_var589": 2748,
      "review": 2749,
      "max_features": 2750,
      "ok": 2751,
      "walk": 2752,
      "_th": 2753,
      "_var591": 2754,
      "int_": 2755,
      "enate": 2756,
      "initializer": 2757,
      "p_": 2758,
      "nd": 2759,
      "categor": 2760,
      "_sh": 2761,
      "x_6": 2762,
      "data_6": 2763,
      "_var592": 2764,
      "_var594": 2765,
      "OneHotEncoder": 2766,
      "y_3": 2767,
      "curren": 2768,
      "_range": 2769,
      "math": 2770,
      "_var595": 2771,
      "quantile": 2772,
      "kw": 2773,
      "_var593": 2774,
      "twee": 2775,
      "meth": 2776,
      "sup": 2777,
      "rf_0": 2778,
      "l_": 2779,
      "_recall": 2780,
      "correc": 2781,
      "siz": 2782,
      "director": 2783,
      "_var596": 2784,
      "df_11": 2785,
      "criterion": 2786,
      "i_5": 2787,
      "upper": 2788,
      "to_datetime": 2789,
      "pipe": 2790,
      "y_train_pred": 2791,
      "y_train_2": 2792,
      "_var599": 2793,
      "naive_": 2794,
      "_var600": 2795,
      "tqdm": 2796,
      "_var598": 2797,
      "random_": 2798,
      "76": 2799,
      "EP": 2800,
      "prob": 2801,
      "_var597": 2802,
      "gamma": 2803,
      "leaf": 2804,
      "iff": 2805,
      "ulate": 2806,
      "tail": 2807,
      "tp": 2808,
      "e_": 2809,
      "89": 2810,
      "the": 2811,
      "forecast": 2812,
      "y_test_2": 2813,
      "xticklabels": 2814,
      "match": 2815,
      "_var605": 2816,
      "intercep": 2817,
      "_var601": 2818,
      "countr": 2819,
      "any": 2820,
      "asso": 2821,
      "_var607": 2822,
      "_var602": 2823,
      "_var604": 2824,
      "_var606": 2825,
      "_var603": 2826,
      "('": 2827,
      "_C": 2828,
      "io": 2829,
      "sition": 2830,
      "train_4": 2831,
      "fied": 2832,
      "squar": 2833,
      "seq": 2834,
      "all_": 2835,
      "//": 2836,
      "DF": 2837,
      "naive_bayes": 2838,
      "_target": 2839,
      "_var610": 2840,
      "lock": 2841,
      "_var608": 2842,
      "Age": 2843,
      "sizes": 2844,
      "Simple": 2845,
      "_var609": 2846,
      "objec": 2847,
      "dig": 2848,
      "XGBClassifier": 2849,
      "ak": 2850,
      "Activation": 2851,
      "_var612": 2852,
      "correlation": 2853,
      "j_0": 2854,
      "cn": 2855,
      "rfc": 2856,
      "verse": 2857,
      "_var611": 2858,
      "to_categorical": 2859,
      "_par": 2860,
      "_data_1": 2861,
      "train_df_0": 2862,
      "_var613": 2863,
      "_var614": 2864,
      "_var615": 2865,
      "isin": 2866,
      "_pca": 2867,
      "_var617": 2868,
      "79": 2869,
      "counts": 2870,
      "logistic": 2871,
      ":,": 2872,
      "cluster": 2873,
      "_var616": 2874,
      "apping": 2875,
      "urvived": 2876,
      "_var619": 2877,
      "self_8": 2878,
      "ant": 2879,
      "tools": 2880,
      "_var618": 2881,
      "dum": 2882,
      "generator": 2883,
      "_var620": 2884,
      "_table": 2885,
      "sent": 2886,
      "_label": 2887,
      "flatten": 2888,
      "from_": 2889,
      "df_12": 2890,
      "')": 2891,
      "MA": 2892,
      "resize": 2893,
      "_weights": 2894,
      "df_all": 2895,
      "_var625": 2896,
      "original": 2897,
      "fig_2": 2898,
      "_var621": 2899,
      "10000": 2900,
      "63": 2901,
      "Lasso": 2902,
      "enc": 2903,
      "_var622": 2904,
      "_var624": 2905,
      "merged_": 2906,
      "74": 2907,
      "_var623": 2908,
      "min_": 2909,
      "s_4": 2910,
      "To": 2911,
      "_var628": 2912,
      "tmp": 2913,
      "_var627": 2914,
      "doc": 2915,
      "_var626": 2916,
      "MSE": 2917,
      "_x": 2918,
      "noise": 2919,
      "drop_": 2920,
      "_var630": 2921,
      "iowa": 2922,
      "create": 2923,
      "_var629": 2924,
      "itera": 2925,
      "ax_3": 2926,
      "scaler_0": 2927,
      "seg": 2928,
      "pool_size": 2929,
      "_vec": 2930,
      "_perc": 2931,
      "non": 2932,
      "shi": 2933,
      "X_4": 2934,
      "strateg": 2935,
      "_var632": 2936,
      "_var631": 2937,
      "ES": 2938,
      "GD": 2939,
      "best_score_": 2940,
      "_stat": 2941,
      "selected_": 2942,
      "concatenate": 2943,
      "_var635": 2944,
      "_var634": 2945,
      "Count": 2946,
      "real": 2947,
      "Emb": 2948,
      "_var633": 2949,
      "_21": 2950,
      "_var638": 2951,
      "512": 2952,
      "93": 2953,
      "oof": 2954,
      "1e": 2955,
      "_var636": 2956,
      "feature_importances_": 2957,
      "df_train_0": 2958,
      "early": 2959,
      "_var637": 2960,
      "combined": 2961,
      "ked": 2962,
      "_initializer": 2963,
      "method": 2964,
      "_var640": 2965,
      "compo": 2966,
      "y_test_": 2967,
      "_var639": 2968,
      "training_": 2969,
      "predictions_0": 2970,
      "string": 2971,
      "device": 2972,
      "linspace": 2973,
      "ell": 2974,
      "bound": 2975,
      "accuracy_0": 2976,
      "lip": 2977,
      "spec": 2978,
      "classe": 2979,
      "Features": 2980,
      "combined_": 2981,
      "_sum": 2982,
      "_var641": 2983,
      "conf_matrix": 2984,
      "GradientBoostingClassifier": 2985,
      "vocab": 2986,
      "_var645": 2987,
      "entage": 2988,
      "Dis": 2989,
      "Tfidf": 2990,
      "adj": 2991,
      "Word": 2992,
      "_bin": 2993,
      "_var646": 2994,
      "_var643": 2995,
      "_var642": 2996,
      "_var644": 2997,
      "_var647": 2998,
      "_var648": 2999,
      "model_name": 3000,
      "MO": 3001,
      "dumm": 3002,
      "_top": 3003,
      "ru": 3004,
      "_var649": 3005,
      "56": 3006,
      "_var650": 3007,
      "gets": 3008,
      "X_train_scaled": 3009,
      "aug": 3010,
      "_std": 3011,
      "_data_": 3012,
      "i_6": 3013,
      "anc": 3014,
      "t_1": 3015,
      "label_encoder": 3016,
      "t_3": 3017,
      "_var651": 3018,
      "high": 3019,
      "outputs": 3020,
      "_var652": 3021,
      "ative": 3022,
      "1D": 3023,
      "86": 3024,
      "pus": 3025,
      "ence": 3026,
      "SimpleImputer": 3027,
      "_sample": 3028,
      "max_iter": 3029,
      "pe": 3030,
      "Res": 3031,
      "120": 3032,
      "_var655": 3033,
      "_var654": 3034,
      "Generator": 3035,
      "_var653": 3036,
      "abet": 3037,
      "node": 3038,
      "Val": 3039,
      "labels_1": 3040,
      "250": 3041,
      "s_df": 3042,
      "1_2": 3043,
      "ER": 3044,
      "delta": 3045,
      "chan": 3046,
      "_var656": 3047,
      "_per_": 3048,
      "73": 3049,
      "mm": 3050,
      "_con": 3051,
      "state": 3052,
      "current_": 3053,
      "x_7": 3054,
      "_var660": 3055,
      "_dummies": 3056,
      "column_": 3057,
      "k_0": 3058,
      "multi": 3059,
      "_var657": 3060,
      "Ada": 3061,
      "self_9": 3062,
      "84": 3063,
      "_var659": 3064,
      "ATH": 3065,
      "model_6": 3066,
      "_var658": 3067,
      "54": 3068,
      "gd": 3069,
      "results_0": 3070,
      "cl": 3071,
      "ient": 3072,
      "s_8": 3073,
      "ratified": 3074,
      "features_0": 3075,
      "ypred": 3076,
      "ity_": 3077,
      "_var661": 3078,
      "compon": 3079,
      "update": 3080,
      "_leaf": 3081,
      "Me": 3082,
      "deg": 3083,
      "imputer": 3084,
      "_var662": 3085,
      "FP": 3086,
      "exper": 3087,
      "axes_0": 3088,
      "plotly": 3089,
      "pos": 3090,
      "_var663": 3091,
      "clf_2": 3092,
      "le_": 3093,
      "X_train_3": 3094,
      "axs": 3095,
      "_var666": 3096,
      "_var667": 3097,
      "_var665": 3098,
      "_var664": 3099,
      "_var668": 3100,
      "px": 3101,
      "pair": 3102,
      "data_7": 3103,
      "yticks": 3104,
      "_var669": 3105,
      "over": 3106,
      "index_0": 3107,
      "_test_1": 3108,
      "weight": 3109,
      "SGD": 3110,
      "_file": 3111,
      "_dist": 3112,
      "_total": 3113,
      "ib": 3114,
      "_posi": 3115,
      "Sto": 3116,
      "remove": 3117,
      "vectorizer": 3118,
      "_func3": 3119,
      "_var670": 3120,
      "dump": 3121,
      "g_0": 3122,
      "Lo": 3123,
      "bre": 3124,
      "kmean": 3125,
      "abetes": 3126,
      "IMA": 3127,
      "strides": 3128,
      "BoostClassifier": 3129,
      "ration": 3130,
      "ros": 3131,
      "_var671": 3132,
      "_var672": 3133,
      "stopwords": 3134,
      "test_3": 3135,
      "_var674": 3136,
      "ach": 3137,
      "rr": 3138,
      "_var676": 3139,
      "_var673": 3140,
      "titanic_": 3141,
      "tu": 3142,
      "encoded_": 3143,
      "_var675": 3144,
      "Stratified": 3145,
      "1_": 3146,
      "ratio": 3147,
      "price": 3148,
      "train_data_0": 3149,
      "_var677": 3150,
      "in_": 3151,
      "_frame": 3152,
      "92": 3153,
      "AR": 3154,
      "()(": 3155,
      "col_1": 3156,
      "uture": 3157,
      "Dataset": 3158,
      "category": 3159,
      "test_df_1": 3160,
      "_22": 3161,
      "ids": 3162,
      "img_0": 3163,
      "_var678": 3164,
      "iance": 3165,
      "ess": 3166,
      "Param": 3167,
      "self_0": 3168,
      "_var680": 3169,
      "mote": 3170,
      "ck": 3171,
      "PCA": 3172,
      "Y_0": 3173,
      "Y_": 3174,
      "train_5": 3175,
      "_model_1": 3176,
      "_var679": 3177,
      "sed": 3178,
      "2_": 3179,
      "_var682": 3180,
      "directory": 3181,
      "feature_extrac": 3182,
      "='": 3183,
      "_df_4": 3184,
      "_var685": 3185,
      "_var681": 3186,
      "ward": 3187,
      "gene": 3188,
      "kernel_initializer": 3189,
      "_var684": 3190,
      "_submission": 3191,
      "enco": 3192,
      "Mat": 3193,
      "_var683": 3194,
      "_var686": 3195,
      "url": 3196,
      "config": 3197,
      "_best": 3198,
      "reg_0": 3199,
      "_var687": 3200,
      "ON": 3201,
      "iction": 3202,
      "y_pred_3": 3203,
      "nom": 3204,
      "T_": 3205,
      "_var688": 3206,
      "classifier_0": 3207,
      "_var689": 3208,
      "hot": 3209,
      "_var690": 3210,
      "history_0": 3211,
      "sid": 3212,
      "work": 3213,
      "_data_2": 3214,
      "lstm": 3215,
      "_tex": 3216,
      "scatterplot": 3217,
      "early_st": 3218,
      "my_": 3219,
      "poly": 3220,
      "72": 3221,
      "clf_1": 3222,
      "not_": 3223,
      "zero": 3224,
      "df_13": 3225,
      "pop": 3226,
      "label_0": 3227,
      "_var691": 3228,
      "sorted": 3229,
      "st_": 3230,
      "decision_tree": 3231,
      "_var694": 3232,
      "((": 3233,
      "fn": 3234,
      "ger": 3235,
      "_var695": 3236,
      "rees": 3237,
      "level": 3238,
      "_length": 3239,
      "down": 3240,
      "_var692": 3241,
      "_regression": 3242,
      "number": 3243,
      "_var693": 3244,
      "_map": 3245,
      "conver": 3246,
      "DataGenerator": 3247,
      "ated": 3248,
      "XGBRegressor": 3249,
      "lb": 3250,
      "counter": 3251,
      "off": 3252,
      "91": 3253,
      "ues": 3254,
      "train_size": 3255,
      "final_": 3256,
      "pas": 3257,
      "_var696": 3258,
      "ng": 3259,
      "excep": 3260,
      "test_df_2": 3261,
      "location": 3262,
      "y_hat": 3263,
      "Name": 3264,
      "class_names": 3265,
      "_tensor": 3266,
      "_var698": 3267,
      "x_val": 3268,
      "shap": 3269,
      "_titanic": 3270,
      "_var697": 3271,
      "_validation": 3272,
      "experim": 3273,
      "ser": 3274,
      "ee": 3275,
      "ev": 3276,
      "_precision": 3277,
      "gbm": 3278,
      "pose": 3279,
      "_var700": 3280,
      "_var699": 3281,
      "embedding_matrix": 3282,
      "cut": 3283,
      "_reg_0": 3284,
      "diabetes": 3285,
      "reduce": 3286,
      "start_": 3287,
      "Stopping": 3288,
      "x_train_1": 3289,
      "set_0": 3290,
      "_var701": 3291,
      "channel": 3292,
      "TN": 3293,
      "_var702": 3294,
      "2_2": 3295,
      "cros": 3296,
      "freq": 3297,
      "ded": 3298,
      "test_X": 3299,
      "sis": 3300,
      "_var705": 3301,
      "_var706": 3302,
      "_var704": 3303,
      "json": 3304,
      "sentim": 3305,
      "pad": 3306,
      "_dt": 3307,
      "factor": 3308,
      "self_10": 3309,
      "_features_0": 3310,
      "Ear": 3311,
      "_var703": 3312,
      "CountVectorizer": 3313,
      "outlier": 3314,
      "header": 3315,
      "diff": 3316,
      "ax_4": 3317,
      "_var710": 3318,
      "_clf_0": 3319,
      "wr": 3320,
      "_var708": 3321,
      "Early": 3322,
      "53": 3323,
      "atal": 3324,
      "sorted_": 3325,
      "TfidfVectorizer": 3326,
      "_var707": 3327,
      "_var709": 3328,
      "result_0": 3329,
      "ImageDataGenerator": 3330,
      "nunique": 3331,
      "ropy": 3332,
      "lw": 3333,
      "itor": 3334,
      "_transformer": 3335,
      "_age": 3336,
      "action": 3337,
      "images_0": 3338,
      "EarlyStopping": 3339,
      "62": 3340,
      "s_list": 3341,
      "_subplot": 3342,
      "AU": 3343,
      "_23": 3344,
      "Colum": 3345,
      "except": 3346,
      "lastic": 3347,
      "rcParam": 3348,
      "_names": 3349,
      "feature_extraction": 3350,
      "strategy": 3351,
      "losses": 3352,
      "y1": 3353,
      "total_": 3354,
      "loss_0": 3355,
      "test_df_0": 3356,
      "tweet_": 3357,
      "db": 3358,
      "as_index": 3359,
      "_var715": 3360,
      "_var711": 3361,
      "59": 3362,
      "_var714": 3363,
      "ily": 3364,
      "_var712": 3365,
      "_var716": 3366,
      "monitor": 3367,
      "outliers": 3368,
      "x_8": 3369,
      "_var717": 3370,
      "her": 3371,
      "ution": 3372,
      "plit_": 3373,
      "quer": 3374,
      "meta": 3375,
      "_var718": 3376,
      "trace": 3377,
      "home": 3378,
      "_var713": 3379,
      "_lr": 3380,
      "_var720": 3381,
      "feature_name": 3382,
      "pred_0": 3383,
      "_var719": 3384,
      "ins": 3385,
      "0001": 3386,
      "rf_": 3387,
      "ED": 3388,
      "_train_1": 3389,
      "_var721": 3390,
      "val_y": 3391,
      "sert": 3392,
      "_var725": 3393,
      "ason": 3394,
      "data_8": 3395,
      "collec": 3396,
      "ket": 3397,
      "grid_search_0": 3398,
      "83": 3399,
      "end_": 3400,
      "formance": 3401,
      "Matrix": 3402,
      "quest": 3403,
      "_var724": 3404,
      "_B": 3405,
      "subset": 3406,
      "_var726": 3407,
      "Pr": 3408,
      "train_labels": 3409,
      "_var727": 3410,
      "gram": 3411,
      "cm_1": 3412,
      "contin": 3413,
      "_sp": 3414,
      "_gra": 3415,
      "_var722": 3416,
      "_var729": 3417,
      "stab": 3418,
      "theta": 3419,
      "cols_0": 3420,
      "row_0": 3421,
      "dot": 3422,
      "_var730": 3423,
      "ment_": 3424,
      "_var723": 3425,
      "_var728": 3426,
      "nomial": 3427,
      "_price": 3428,
      "test_y": 3429,
      "ant_": 3430,
      "generate": 3431,
      "labels_": 3432,
      "gradi": 3433,
      "_24": 3434,
      "52": 3435,
      "idx_0": 3436,
      "_dim": 3437,
      "job": 3438,
      "patience": 3439,
      "encoding": 3440,
      "auto": 3441,
      "under": 3442,
      "coeff": 3443,
      "StratifiedKFold": 3444,
      "hor": 3445,
      "Id": 3446,
      "FN": 3447,
      "_output": 3448,
      "test_index": 3449,
      "_var731": 3450,
      "ingRegressor": 3451,
      "std_": 3452,
      "_var732": 3453,
      "weet": 3454,
      "come": 3455,
      "den_": 3456,
      "_var733": 3457,
      "41": 3458,
      "df_14": 3459,
      "180": 3460,
      "intercept_": 3461,
      "components": 3462,
      "art": 3463,
      "_var734": 3464,
      "ld": 3465,
      "Le": 3466,
      "decode": 3467,
      "degree": 3468,
      "ha": 3469,
      "_var735": 3470,
      "fc": 3471,
      "cost": 3472,
      "_var740": 3473,
      "X_5": 3474,
      "name_0": 3475,
      "_var737": 3476,
      "vector": 3477,
      "X_test_3": 3478,
      "gs": 3479,
      "strip": 3480,
      "_var738": 3481,
      "chi": 3482,
      "kfold": 3483,
      "corpus": 3484,
      "dec": 3485,
      "loader": 3486,
      "kf": 3487,
      "rcParams": 3488,
      "vis": 3489,
      "_var736": 3490,
      "float32": 3491,
      "crosstab": 3492,
      "_with_": 3493,
      "glob": 3494,
      "X_test_scaled": 3495,
      "df_c": 3496,
      "_var739": 3497,
      "loss_": 3498,
      "eval_": 3499,
      "buil": 3500,
      "_X": 3501,
      "log_": 3502,
      "X1": 3503,
      "example": 3504,
      "parse": 3505,
      "test_4": 3506,
      "parameter": 3507,
      "].": 3508,
      "i_7": 3509,
      "_var741": 3510,
      "rfe": 3511,
      "ignore": 3512,
      "_var745": 3513,
      "drop_first": 3514,
      "LA": 3515,
      "_var744": 3516,
      "vec": 3517,
      "_var746": 3518,
      "histor": 3519,
      "cnn": 3520,
      "sters": 3521,
      "thresh": 3522,
      "_var747": 3523,
      "))]": 3524,
      "alg": 3525,
      "_model_2": 3526,
      "_var742": 3527,
      "cle": 3528,
      "main": 3529,
      "min_samples_leaf": 3530,
      "_var743": 3531,
      "gc": 3532,
      "_var748": 3533,
      "cu": 3534,
      "l_0": 3535,
      "sales": 3536,
      "_ho": 3537,
      "fe": 3538,
      "List": 3539,
      "es_0": 3540,
      "predictions_": 3541,
      "image_0": 3542,
      "const": 3543,
      "resid": 3544,
      "ampling": 3545,
      "index_col": 3546,
      "opt": 3547,
      "early_sto": 3548,
      "histplot": 3549,
      "close": 3550,
      "displa": 3551,
      "randint": 3552,
      "hidden_": 3553,
      "_var750": 3554,
      "omial": 3555,
      "MLP": 3556,
      "self_11": 3557,
      "Ex": 3558,
      "imread": 3559,
      "ustom": 3560,
      "gr": 3561,
      "left_": 3562,
      "_T": 3563,
      "eng": 3564,
      "LGB": 3565,
      "_var751": 3566,
      "400": 3567,
      "_var749": 3568,
      "Counter": 3569,
      "statsmodels": 3570,
      "rep": 3571,
      "pad_": 3572,
      "_mat": 3573,
      "defa": 3574,
      "_pos": 3575,
      "med_": 3576,
      "lgbm": 3577,
      "_var752": 3578,
      "ed_0": 3579,
      "_gen": 3580,
      "min_samples_split": 3581,
      "_var753": 3582,
      "_var754": 3583,
      "inomial": 3584,
      "ite": 3585,
      "solver": 3586,
      "_var755": 3587,
      "df_test_0": 3588,
      "ATCH": 3589,
      "Price": 3590,
      "dict_": 3591,
      "folder": 3592,
      "test_pred": 3593,
      "func": 3594,
      "160": 3595,
      "fy": 3596,
      "cov": 3597,
      "_dict_": 3598,
      "_array": 3599,
      "beta": 3600,
      "_var756": 3601,
      "G_": 3602,
      "_var757": 3603,
      "knn_": 3604,
      "Column": 3605,
      "rest": 3606,
      "_var758": 3607,
      "cm_0": 3608,
      "_tfidf": 3609,
      "light": 3610,
      "_var760": 3611,
      "analy": 3612,
      "_du": 3613,
      "pu": 3614,
      "led": 3615,
      "model_7": 3616,
      "season": 3617,
      "return_": 3618,
      "ncols": 3619,
      "_var759": 3620,
      "y_4": 3621,
      "ception": 3622,
      "_tun": 3623,
      "dense": 3624,
      "ada": 3625,
      "asp": 3626,
      "df_15": 3627,
      "erson": 3628,
      "71": 3629,
      "make_pipeline": 3630,
      "_var766": 3631,
      "_var767": 3632,
      "Randomized": 3633,
      "accuracies": 3634,
      "_PATH": 3635,
      "_var763": 3636,
      "_svc": 3637,
      "train_x": 3638,
      "_var762": 3639,
      "IQ": 3640,
      "tron": 3641,
      "logreg_0": 3642,
      "adjust": 3643,
      "kdeplot": 3644,
      "_var761": 3645,
      "140": 3646,
      "dataset_1": 3647,
      "_func4": 3648,
      "clf_": 3649,
      "ade": 3650,
      "variable": 3651,
      "calc": 3652,
      "AdaBoostClassifier": 3653,
      "sep": 3654,
      "_var764": 3655,
      "ain": 3656,
      "feature_importance": 3657,
      "data_test": 3658,
      "_var765": 3659,
      "61": 3660,
      "ytest": 3661,
      "y_train_3": 3662,
      "fig_3": 3663,
      "LU": 3664,
      "verage": 3665,
      "_var768": 3666,
      "i_8": 3667,
      "tfidf": 3668,
      "mlp": 3669,
      "yticklabels": 3670,
      "pen": 3671,
      "df4": 3672,
      "130": 3673,
      "mn": 3674,
      "x2": 3675,
      "_var769": 3676,
      "KNN": 3677,
      "lamb": 3678,
      "tem": 3679,
      "123": 3680,
      "yaxis": 3681,
      "add_subplot": 3682,
      "Color": 3683,
      "object": 3684,
      "table": 3685,
      "IQR": 3686,
      "self_12": 3687,
      "num_classes": 3688,
      "RandomizedSearchCV": 3689,
      "GR": 3690,
      "_var770": 3691,
      "asarray": 3692,
      "_var772": 3693,
      "_var774": 3694,
      "ities": 3695,
      "_var771": 3696,
      "_poly": 3697,
      "resampled": 3698,
      "ultinomial": 3699,
      "_var773": 3700,
      "yper": 3701,
      "Che": 3702,
      "inverse": 3703,
      "country": 3704,
      "bias": 3705,
      "82": 3706,
      "no_": 3707,
      "ATCH_SIZE": 3708,
      "duc": 3709,
      "_var777": 3710,
      "nrows": 3711,
      "moun": 3712,
      "_var775": 3713,
      "IP": 3714,
      "embar": 3715,
      "_wor": 3716,
      "mod": 3717,
      "_var776": 3718,
      "_scaler": 3719,
      "110": 3720,
      "cap": 3721,
      "fam": 3722,
      "display_": 3723,
      "fp": 3724,
      "al_": 3725,
      "_data_3": 3726,
      "fin": 3727,
      "_var780": 3728,
      "grid_0": 3729,
      "_var778": 3730,
      "experiment": 3731,
      "maxlen": 3732,
      "_var779": 3733,
      "ribu": 3734,
      "hidden": 3735,
      "LGBM": 3736,
      "_25": 3737,
      "train_scores": 3738,
      "pairplot": 3739,
      "_vars": 3740,
      "RO": 3741,
      "val_X": 3742,
      "_var781": 3743,
      "categories": 3744,
      "scaled_": 3745,
      "GE": 3746,
      "test_labels": 3747,
      "_var785": 3748,
      "_var782": 3749,
      "MOTE": 3750,
      "51": 3751,
      "_var784": 3752,
      "split_": 3753,
      "_var786": 3754,
      "square": 3755,
      "_var783": 3756,
      "prefix": 3757,
      "resample": 3758,
      "_var789": 3759,
      "df_train_1": 3760,
      "sim": 3761,
      "right_": 3762,
      "dataset_2": 3763,
      "x_9": 3764,
      "reg_": 3765,
      "a_1": 3766,
      "duplic": 3767,
      "plot_confusion_matrix": 3768,
      "_26": 3769,
      "interpol": 3770,
      "pon": 3771,
      "column_0": 3772,
      "sed_": 3773,
      "bbox": 3774,
      "y_predict": 3775,
      "_var790": 3776,
      "_accuracy": 3777,
      "rating": 3778,
      "option": 3779,
      "y2": 3780,
      "_cv_0": 3781,
      "_var788": 3782,
      "_var791": 3783,
      "ock": 3784,
      "ele": 3785,
      "_var795": 3786,
      "ulated_": 3787,
      "_var787": 3788,
      "_var794": 3789,
      "test_data_0": 3790,
      "va": 3791,
      "y_test_3": 3792,
      "X2": 3793,
      "alphas": 3794,
      "data_9": 3795,
      "_var792": 3796,
      "DT": 3797,
      "_var793": 3798,
      "ban": 3799,
      "Conf": 3800,
      "v_0": 3801,
      "af": 3802,
      "lines": 3803,
      "cbar": 3804,
      "data1": 3805,
      "expla": 3806,
      "regular": 3807,
      "_var796": 3808,
      "df_16": 3809,
      "ments": 3810,
      "Ext": 3811,
      "BATCH_SIZE": 3812,
      "marks": 3813,
      "texts": 3814,
      "kws": 3815,
      "IR": 3816,
      "UM": 3817,
      "_var797": 3818,
      "_var799": 3819,
      "labe": 3820,
      "_var798": 3821,
      "_mask": 3822,
      "churn": 3823,
      "coeffic": 3824,
      "cloud": 3825,
      "predictions_1": 3826,
      "inte": 3827,
      "_pred_0": 3828,
      "_r": 3829,
      "imin": 3830,
      "_var800": 3831,
      "_plot": 3832,
      "_var806": 3833,
      "_acc": 3834,
      "_f1": 3835,
      "y_pred_4": 3836,
      "vif": 3837,
      "SVR": 3838,
      "Err": 3839,
      "190": 3840,
      "trial": 3841,
      "ultinomialNB": 3842,
      "t_data": 3843,
      "train_6": 3844,
      "_var801": 3845,
      "SMOTE": 3846,
      "tive_": 3847,
      "_var802": 3848,
      "inverse_transform": 3849,
      "sex": 3850,
      "_var807": 3851,
      "_var808": 3852,
      "117": 3853,
      "block": 3854,
      "_var810": 3855,
      "_var805": 3856,
      "Acc": 3857,
      "(~": 3858,
      "Poly": 3859,
      "Confusion": 3860,
      "_var812": 3861,
      "person": 3862,
      "files": 3863,
      "MultinomialNB": 3864,
      "abin": 3865,
      "_var803": 3866,
      "edgecolor": 3867,
      "Display": 3868,
      "_var809": 3869,
      "_var811": 3870,
      "week": 3871,
      "aspect": 3872,
      "dtree": 3873,
      "dates": 3874,
      "xaxis": 3875,
      "ang": 3876,
      "_scale": 3877,
      "fo": 3878,
      "reduc": 3879,
      "_var813": 3880,
      "Token": 3881,
      "entile": 3882,
      "testing": 3883,
      "sentences": 3884,
      "_var814": 3885,
      "_var804": 3886,
      "_threshold": 3887,
      "classes_": 3888,
      "iod": 3889,
      "_transfor": 3890,
      "us_": 3891,
      "test_scores": 3892,
      "enter": 3893,
      "NA": 3894,
      "ont_": 3895,
      "_width": 3896,
      "_grid_": 3897,
      "bil": 3898,
      "tweet": 3899,
      "l2": 3900,
      "_var815": 3901,
      "x_test_1": 3902,
      "ColumnTransformer": 3903,
      "train_df_3": 3904,
      "region": 3905,
      "_n": 3906,
      "man": 3907,
      "col_2": 3908,
      "OCH": 3909,
      "wise": 3910,
      "common": 3911,
      "false": 3912,
      "ator": 3913,
      "inder": 3914,
      "dropout": 3915,
      "bot": 3916,
      "_function": 3917,
      "train_df_2": 3918,
      "EPOCH": 3919,
      "Embed": 3920,
      "_training": 3921,
      "ytrain": 3922,
      "report": 3923,
      "_var816": 3924,
      "_var817": 3925,
      "_var819": 3926,
      "GradientBoostingRegressor": 3927,
      "EL": 3928,
      "validation_split": 3929,
      "sg": 3930,
      "_var818": 3931,
      "train_data_1": 3932,
      "tic": 3933,
      "_var820": 3934,
      "n_components": 3935,
      "hour": 3936,
      "_log": 3937,
      "to_numpy": 3938,
      "Lay": 3939,
      "Error": 3940,
      "iden": 3941,
      "Selec": 3942,
      "Check": 3943,
      "220": 3944,
      "_var822": 3945,
      "_var824": 3946,
      "val_loss": 3947,
      "_var823": 3948,
      "jec": 3949,
      "mapping": 3950,
      "_var821": 3951,
      "Sale": 3952,
      "X_6": 3953,
      "precision_recall": 3954,
      "qual": 3955,
      "book": 3956,
      "_var825": 3957,
      "Num": 3958,
      "history_": 3959,
      "conten": 3960,
      "Embedding": 3961,
      "D_": 3962,
      "own": 3963,
      "roun": 3964,
      "_var826": 3965,
      "__0": 3966,
      "horiz": 3967,
      "img_1": 3968,
      "nodes": 3969,
      "ann": 3970,
      "strati": 3971,
      "model_8": 3972,
      "_var827": 3973,
      "target_size": 3974,
      "toarray": 3975,
      "X_train_4": 3976,
      "only": 3977,
      "layer_": 3978,
      "ATA": 3979,
      "df3": 3980,
      "country_": 3981,
      "tab": 3982,
      "raction": 3983,
      "ReLU": 3984,
      "learning": 3985,
      "patch": 3986,
      "_var829": 3987,
      "_var828": 3988,
      "fra": 3989,
      "cy": 3990,
      "df_17": 3991,
      "input_dim": 3992,
      "pad_sequences": 3993,
      "image_": 3994,
      "subm": 3995,
      "suptitle": 3996,
      "regression": 3997,
      "_var830": 3998,
      "_var833": 3999,
      "gender": 4000,
      "ION": 4001,
      "_var832": 4002,
      "_var834": 4003,
      "_var831": 4004,
      "hol": 4005,
      "Survived": 4006,
      "c_1": 4007,
      "df_test_1": 4008,
      "tun": 4009,
      "change": 4010,
      "spar": 4011,
      "0000": 4012,
      "y_predic": 4013,
      "_var837": 4014,
      "_rate": 4015,
      "cho": 4016,
      "crimin": 4017,
      "_str": 4018,
      "_var838": 4019,
      "Fare": 4020,
      "align": 4021,
      "ones": 4022,
      "_var835": 4023,
      "lambda": 4024,
      "ients": 4025,
      "g_": 4026,
      "pport": 4027,
      "_var836": 4028,
      "Path": 4029,
      "query": 4030,
      "lda": 4031,
      "170": 4032,
      "Checkpoint": 4033,
      "stratify": 4034,
      "catter": 4035,
      "savefig": 4036,
      "MS": 4037,
      "update_": 4038,
      "lemm": 4039,
      "_var840": 4040,
      "_predictions_0": 4041,
      "_var841": 4042,
      "pie": 4043,
      "samples": 4044,
      "submission_0": 4045,
      "_steps": 4046,
      "late": 4047,
      "_var839": 4048,
      "log_reg": 4049,
      "215": 4050,
      "ura": 4051,
      "score_0": 4052,
      "d_2": 4053,
      "confir": 4054,
      "_var844": 4055,
      "_var842": 4056,
      "s_9": 4057,
      "cent": 4058,
      "imb": 4059,
      "model1": 4060,
      "ax_5": 4061,
      "_pol": 4062,
      "ima": 4063,
      "stance": 4064,
      "anip": 4065,
      "_var843": 4066,
      "df_train_2": 4067,
      "NE": 4068,
      "_var845": 4069,
      "left": 4070,
      "leaf_": 4071,
      "ponse": 4072,
      "Polynomial": 4073,
      "81": 4074,
      "accuracy_1": 4075,
      "df_train_3": 4076,
      "Average": 4077,
      "_results": 4078,
      "_var847": 4079,
      "_var846": 4080,
      "dataset_3": 4081,
      "xt_": 4082,
      "y_pred_test": 4083,
      "loan": 4084,
      "pos_": 4085,
      "230": 4086,
      "260": 4087,
      "(**": 4088,
      "iner": 4089,
      "targets": 4090,
      "ignore_index": 4091,
      "model2": 4092,
      "_var848": 4093,
      "_var849": 4094,
      "b_0": 4095,
      "ontal": 4096,
      "RMSE": 4097,
      "v_": 4098,
      "return_sequences": 4099,
      "set_option": 4100,
      "d_model": 4101,
      "mnist": 4102,
      "Extra": 4103,
      "4_0": 4104,
      "_true": 4105,
      "RAIN": 4106,
      "break": 4107,
      "_train_2": 4108,
      "_var850": 4109,
      "self_13": 4110,
      "train_df_4": 4111,
      "lr_": 4112,
      "scores_0": 4113,
      "joblib": 4114,
      "_variable": 4115,
      "SalePrice": 4116,
      "hyper": 4117,
      "imputed_": 4118,
      "_trace": 4119,
      "tional": 4120,
      "_var851": 4121,
      "_var855": 4122,
      "ModelCheckpoint": 4123,
      "lass": 4124,
      "eather": 4125,
      "train_sizes": 4126,
      "residual": 4127,
      "_var852": 4128,
      "_var854": 4129,
      "x_10": 4130,
      "_day": 4131,
      "preprocessor": 4132,
      "set_xticklabels": 4133,
      "X_t": 4134,
      "whi": 4135,
      "_var853": 4136,
      "AL": 4137,
      "game": 4138,
      "roll": 4139,
      "session": 4140,
      "2000": 4141,
      "EN": 4142,
      "percentile": 4143,
      "X_7": 4144,
      "exclude": 4145,
      "features_": 4146,
      "227": 4147,
      "hand": 4148,
      "best_params": 4149,
      "Time": 4150,
      "xtrain": 4151,
      "_var858": 4152,
      "future": 4153,
      "_var857": 4154,
      "Tokenizer": 4155,
      "train_7": 4156,
      "xx": 4157,
      "_var856": 4158,
      "_func5": 4159,
      "_clusters": 4160,
      "_var859": 4161,
      "embedd": 4162,
      "et_": 4163,
      "TO": 4164,
      "ble": 4165,
      "batch_": 4166,
      "Sp": 4167,
      "init": 4168,
      "PolynomialFeatures": 4169,
      "_28": 4170,
      "_var860": 4171,
      "text_0": 4172,
      "class_weight": 4173,
      "y_6": 4174,
      "_ver": 4175,
      "fa": 4176,
      "_vectorizer": 4177,
      "ress": 4178,
      "_30": 4179,
      "iteration": 4180,
      "super": 4181,
      "train_set": 4182,
      "Tensor": 4183,
      "UR": 4184,
      "selected": 4185,
      "240": 4186,
      "scaled": 4187,
      "mov": 4188,
      "Glo": 4189,
      "df_new": 4190,
      "response": 4191,
      "self_14": 4192,
      "xgb_0": 4193,
      "2d": 4194,
      "cv_results_": 4195,
      "tn": 4196,
      "regr": 4197,
      "save_": 4198,
      "_smote": 4199,
      "n_features": 4200,
      "sr": 4201,
      "cale": 4202,
      "ohe": 4203,
      "y_5": 4204,
      "125": 4205,
      "_var863": 4206,
      "df_20": 4207,
      "_var865": 4208,
      "ampler": 4209,
      "distance": 4210,
      "_sm": 4211,
      "voting": 4212,
      "Face": 4213,
      "mark": 4214,
      "fare": 4215,
      "silon": 4216,
      "print_": 4217,
      "tri": 4218,
      "_var861": 4219,
      "_var862": 4220,
      "_var866": 4221,
      "ot_": 4222,
      "FI": 4223,
      "_var867": 4224,
      "let": 4225,
      "_var864": 4226,
      "days": 4227,
      "Cat": 4228,
      "_by": 4229,
      "custom": 4230,
      "_indices": 4231,
      "le_0": 4232,
      "home_data": 4233,
      "transpose": 4234,
      "right": 4235,
      "digits": 4236,
      "mel": 4237,
      "ython": 4238,
      "MaxPool2D": 4239,
      "LinearSVC": 4240,
      "Trees": 4241,
      "i_": 4242,
      "_27": 4243,
      "_var870": 4244,
      "_group": 4245,
      "interpolation": 4246,
      "115": 4247,
      "EPOCHS": 4248,
      "228": 4249,
      "epsilon": 4250,
      "descrip": 4251,
      "_hot": 4252,
      "df_t": 4253,
      "Sh": 4254,
      "ulation": 4255,
      "df_18": 4256,
      "uniform": 4257,
      "_corr": 4258,
      "acc_0": 4259,
      "svr": 4260,
      "_var871": 4261,
      "imblearn": 4262,
      "df5": 4263,
      "NUM": 4264,
      "_var869": 4265,
      "_var868": 4266,
      "Feature": 4267,
      "urce": 4268,
      "assert": 4269,
      "_generator": 4270,
      "lemmati": 4271,
      "data_10": 4272,
      "preds_0": 4273,
      "linewidths": 4274,
      "118": 4275,
      "lower_": 4276,
      "regressor_0": 4277,
      "dat": 4278,
      "results_1": 4279,
      "tGrid": 4280,
      "tokenize": 4281,
      "_percentage": 4282,
      "FacetGrid": 4283,
      "_var872": 4284,
      "test_x": 4285,
      "IPython": 4286,
      "land": 4287,
      "test_5": 4288,
      "test_set": 4289,
      "ConfusionMatrix": 4290,
      "ExtraTrees": 4291,
      "decompo": 4292,
      "n_samples": 4293,
      "_var875": 4294,
      "s_10": 4295,
      "fold_": 4296,
      "net_": 4297,
      "tention": 4298,
      "fet": 4299,
      "df1_0": 4300,
      "amp": 4301,
      "_tokenize": 4302,
      "_vi": 4303,
      "stock": 4304,
      "ched": 4305,
      "target_names": 4306,
      "_point": 4307,
      "Global": 4308,
      "116": 4309,
      "114": 4310,
      "orient": 4311,
      "_score_0": 4312,
      "_var876": 4313,
      "evaluation": 4314,
      "conta": 4315,
      "_var874": 4316,
      "_knn": 4317,
      "_var873": 4318,
      "viz": 4319,
      "_var877": 4320,
      "_var878": 4321,
      "relu": 4322,
      "SVM": 4323,
      "_test_2": 4324,
      "nb_0": 4325,
      "223": 4326,
      "pass": 4327,
      "exist": 4328,
      "dri": 4329,
      "df_clean": 4330,
      "_proces": 4331,
      "shift": 4332,
      "dic": 4333,
      "secon": 4334,
      "_var879": 4335,
      "filepath": 4336,
      "feature_selection": 4337,
      "ache": 4338,
      "_var880": 4339,
      "Y_train_0": 4340,
      "_classifier_0": 4341,
      "signal": 4342,
      "113": 4343,
      "ts_0": 4344,
      "_var882": 4345,
      "anipulated_": 4346,
      "_list_0": 4347,
      "ific": 4348,
      "_dataframe": 4349,
      "_var881": 4350,
      "question": 4351,
      "_var885": 4352,
      "KMe": 4353,
      "_mapping": 4354,
      "_of_": 4355,
      "model_9": 4356,
      "_var884": 4357,
      "_var886": 4358,
      "_var883": 4359,
      "dims": 4360,
      "_DIR": 4361,
      "_values_": 4362,
      "TH": 4363,
      "war": 4364,
      "image_1": 4365,
      "gues": 4366,
      "_regressor": 4367,
      "lities": 4368,
      "_var887": 4369,
      "count_0": 4370,
      "start_time": 4371,
      "_e": 4372,
      "requen": 4373,
      "mem": 4374,
      "max_leaf_": 4375,
      "args": 4376,
      "mu": 4377,
      "rap": 4378,
      "_var888": 4379,
      "long": 4380,
      "t_4": 4381,
      "_var889": 4382,
      "target_0": 4383,
      "modelo": 4384,
      "network": 4385,
      "Scatter": 4386,
      "res_0": 4387,
      "horizontal": 4388,
      "119": 4389,
      "_sc": 4390,
      "216": 4391,
      "Clo": 4392,
      "data_11": 4393,
      "ogra": 4394,
      "214": 4395,
      "ov": 4396,
      "rn": 4397,
      "_predicted": 4398,
      "800": 4399,
      "diag": 4400,
      "_var891": 4401,
      "218": 4402,
      "270": 4403,
      "_var890": 4404,
      "dule": 4405,
      "Pro": 4406,
      "datagen": 4407,
      "fig_4": 4408,
      "feature_0": 4409,
      "autop": 4410,
      "fetch": 4411,
      "On": 4412,
      "_var895": 4413,
      "limit": 4414,
      "objective": 4415,
      "_var892": 4416,
      "img_path": 4417,
      "210": 4418,
      "duplicated": 4419,
      "217": 4420,
      "Df": 4421,
      "_var894": 4422,
      "autopct": 4423,
      "_var893": 4424,
      "_var897": 4425,
      "expand_": 4426,
      "225": 4427,
      "image_path": 4428,
      "process": 4429,
      "bank": 4430,
      "_var898": 4431,
      "Out": 4432,
      "bor": 4433,
      "DS": 4434,
      "_var900": 4435,
      "img_2": 4436,
      "images_1": 4437,
      "_var899": 4438,
      "zo": 4439,
      "_var896": 4440,
      "stac": 4441,
      "_bi": 4442,
      "_regular": 4443,
      "Manipulated_": 4444,
      "ster_": 4445,
      "y_pred_5": 4446,
      "_sampling": 4447,
      "svc_0": 4448,
      "_duplic": 4449,
      "cred": 4450,
      "api": 4451,
      "X_test_4": 4452,
      "_var901": 4453,
      "213": 4454,
      "team": 4455,
      "ations": 4456,
      "lr_1": 4457,
      "is_": 4458,
      "experimental": 4459,
      "1_3": 4460,
      "219": 4461,
      "percentage": 4462,
      "_var902": 4463,
      "_var903": 4464,
      "ConfusionMatrixDisplay": 4465,
      "font_": 4466,
      "df_f": 4467,
      "data2": 4468,
      "_var904": 4469,
      "_per_epoch": 4470,
      "j_1": 4471,
      "mut": 4472,
      "word_index": 4473,
      "_su": 4474,
      "_new": 4475,
      "df_val": 4476,
      "look": 4477,
      "base_model": 4478,
      "by_": 4479,
      "wordcloud": 4480,
      "Accurac": 4481,
      "olution": 4482,
      "sn": 4483,
      "visual": 4484,
      "backend": 4485,
      "upper_": 4486,
      "An": 4487,
      "negative": 4488,
      "p_1": 4489,
      "ude": 4490,
      "_var905": 4491,
      "_var908": 4492,
      "clf_3": 4493,
      "dad": 4494,
      "mpl": 4495,
      "sec": 4496,
      "_var906": 4497,
      "_var907": 4498,
      "quee": 4499,
      "update_layout": 4500,
      "Ch": 4501,
      "m_1": 4502,
      "posi": 4503,
      "226": 4504,
      "ison": 4505,
      "e_0": 4506,
      "mi": 4507,
      "1024": 4508,
      "onehot": 4509,
      "cf": 4510,
      "gaussian": 4511,
      "self_15": 4512,
      "one_hot": 4513,
      "_shape": 4514,
      "lightgbm": 4515,
      "_R": 4516,
      "draw": 4517,
      "_var909": 4518,
      "rms": 4519,
      "options": 4520,
      "raw_data": 4521,
      "xy": 4522,
      "_var910": 4523,
      "_var912": 4524,
      "KMeans": 4525,
      "arti": 4526,
      "sigma": 4527,
      "ly_": 4528,
      "rd": 4529,
      "room": 4530,
      "i_9": 4531,
      "Pclass": 4532,
      "_var913": 4533,
      "wo": 4534,
      "02": 4535,
      "_var914": 4536,
      "ancer": 4537,
      "decomposition": 4538,
      "_duplicates": 4539,
      "_var916": 4540,
      "dataset_15": 4541,
      "x_11": 4542,
      "dataset_5": 4543,
      "sparse": 4544,
      "_var915": 4545,
      "rf_model_0": 4546,
      "preprocess_": 4547,
      "_var917": 4548,
      "_dataset_": 4549,
      "_var911": 4550,
      "y_train_4": 4551,
      "queeze": 4552,
      "coord": 4553,
      "test_data_1": 4554,
      "ower": 4555,
      "_var919": 4556,
      "_var918": 4557,
      "lineplot": 4558,
      "_var920": 4559,
      "baseline": 4560,
      "val_mae": 4561,
      "dummy": 4562,
      "Q3": 4563,
      "Red": 4564,
      "dataset_18": 4565,
      "regularizers": 4566,
      "_transformed": 4567,
      "5000": 4568,
      "n_clusters": 4569,
      "trainable": 4570,
      "_var921": 4571,
      "search_0": 4572,
      "angle": 4573,
      "(*": 4574,
      "ult_": 4575,
      "_var923": 4576,
      "_var926": 4577,
      "_k": 4578,
      "ston": 4579,
      "File": 4580,
      "balance": 4581,
      "mess": 4582,
      "globals": 4583,
      "_var922": 4584,
      "cv_results": 4585,
      "df_19": 4586,
      "_29": 4587,
      "moid": 4588,
      "movi": 4589,
      "next_": 4590,
      "_var924": 4591,
      "features_1": 4592,
      "_var925": 4593,
      "boston": 4594,
      "_var927": 4595,
      "Date": 4596,
      "word_0": 4597,
      "0_0": 4598,
      "_parame": 4599,
      "_tf": 4600,
      "tour": 4601,
      "stop_words": 4602,
      "y_train_5": 4603,
      "y_val_0": 4604,
      "_var928": 4605,
      "AUTO": 4606,
      "Select": 4607,
      "od_": 4608,
      "create_": 4609,
      "mount": 4610,
      "_tag": 4611,
      "bilities": 4612,
      "penal": 4613,
      "expand_dims": 4614,
      "Sex": 4615,
      "col_name": 4616,
      "corr_matrix": 4617,
      "COL": 4618,
      "div": 4619,
      "sys": 4620,
      "steps_per_epoch": 4621,
      "rein": 4622,
      "_var929": 4623,
      "_regularizer": 4624,
      "cache": 4625,
      "bow": 4626,
      "arning": 4627,
      "hear": 4628,
      "columns_to_": 4629,
      "itertools": 4630,
      "tag": 4631,
      "Value": 4632,
      "112": 4633,
      "decoder": 4634,
      "_var930": 4635,
      "_var931": 4636,
      "_factor": 4637,
      "s_age": 4638,
      "mse_0": 4639,
      "MLPClassifier": 4640,
      "numb": 4641,
      "US": 4642,
      "n_1": 4643,
      "boot": 4644,
      "_var932": 4645,
      "titanic_df_3": 4646,
      "keep": 4647,
      "_var938": 4648,
      "early_stopping": 4649,
      "message": 4650,
      "load_model": 4651,
      "_var933": 4652,
      "E_": 4653,
      "_tri": 4654,
      "colorbar": 4655,
      "_var935": 4656,
      "212": 4657,
      "_var934": 4658,
      "ps": 4659,
      "self_16": 4660,
      "_var937": 4661,
      "facecolor": 4662,
      "compose": 4663,
      "ax_6": 4664,
      "label_1": 4665,
      "_values_0": 4666,
      "df_test_2": 4667,
      "log_loss": 4668,
      "text_1": 4669,
      "period": 4670,
      "of_": 4671,
      "Type": 4672,
      "mape": 4673,
      "_var939": 4674,
      "_var942": 4675,
      "log1": 4676,
      "applications": 4677,
      "Cloud": 4678,
      "ai": 4679,
      "_window": 4680,
      "_var940": 4681,
      "_var941": 4682,
      "ash": 4683,
      "x_train_": 4684,
      "gca": 4685,
      "train_8": 4686,
      "tick_": 4687,
      "DATA": 4688,
      "IC": 4689,
      "ines": 4690,
      "_var936": 4691,
      "thresholds": 4692,
      "_info": 4693,
      "HT": 4694,
      "_on": 4695,
      "rence": 4696,
      "known": 4697,
      "j_2": 4698,
      "ily_": 4699,
      "_var943": 4700,
      "TRAIN": 4701,
      "Base": 4702,
      "weather": 4703,
      "lasticNet": 4704,
      "produc": 4705,
      "punc": 4706,
      "acro": 4707,
      "lflow": 4708,
      "dt_0": 4709,
      "continue": 4710,
      "height_": 4711,
      "write": 4712,
      "local": 4713,
      "Conv1D": 4714,
      "variance": 4715,
      "_cell": 4716,
      "cel": 4717,
      "_var945": 4718,
      "_var946": 4719,
      "_var947": 4720,
      "backg": 4721,
      "_comp": 4722,
      "i_10": 4723,
      "y_pred_train": 4724,
      "case": 4725,
      "101": 4726,
      "data_dir": 4727,
      "_performance": 4728,
      "orith": 4729,
      "df_p": 4730,
      "xtest": 4731,
      "ds_0": 4732,
      "df2_0": 4733,
      "subsample": 4734,
      "_var944": 4735,
      "bility": 4736,
      "_32": 4737,
      "pred_1": 4738,
      "ined": 4739,
      "log1p": 4740,
      "_var948": 4741,
      "round_": 4742,
      "emo": 4743,
      "_var949": 4744,
      "f_1": 4745,
      "self_17": 4746,
      "get_height": 4747,
      "spam": 4748,
      "ud_": 4749,
      "New": 4750,
      "_sq": 4751,
      "learntools": 4752,
      "prediction_0": 4753,
      "data_13": 4754,
      "_scores_0": 4755,
      "idx_1": 4756,
      "argsort": 4757,
      "WordCloud": 4758,
      "collections": 4759,
      "coefficients": 4760,
      "mlflow": 4761,
      "_func6": 4762,
      "_var951": 4763,
      "AveragePool": 4764,
      "iv": 4765,
      "_var950": 4766,
      "movies": 4767,
      "_var952": 4768,
      "Y_1": 4769,
      "atient": 4770,
      "seasonal": 4771,
      "_var953": 4772,
      "')]": 4773,
      "X_tr": 4774,
      "_targets": 4775,
      "_stats": 4776,
      "binary": 4777,
      "y_7": 4778,
      "transforms": 4779,
      "load_data": 4780,
      "OnP": 4781,
      "iq": 4782,
      "rs": 4783,
      "rank": 4784,
      "drop_duplicates": 4785,
      "word_tokenize": 4786,
      "_var957": 4787,
      "LROnP": 4788,
      "Split": 4789,
      "oth": 4790,
      "_var956": 4791,
      "allback": 4792,
      "model_10": 4793,
      "_folder": 4794,
      "num_cols": 4795,
      "_dir": 4796,
      "test_6": 4797,
      "_var954": 4798,
      "_var955": 4799,
      "sentropy": 4800,
      "deep": 4801,
      "_var959": 4802,
      "dataset_8": 4803,
      "Embar": 4804,
      "Score": 4805,
      "_var958": 4806,
      "IMAGE": 4807,
      "convert": 4808,
      "age_": 4809,
      "Bagg": 4810,
      "predictor": 4811,
      "gbr": 4812,
      "choice": 4813,
      "_vect": 4814,
      "lang": 4815,
      "_var960": 4816,
      "tokens": 4817,
      "With": 4818,
      "senger": 4819,
      "rossentropy": 4820,
      "_sales": 4821,
      "next": 4822,
      "TEST": 4823,
      "clip": 4824,
      "x_train_2": 4825,
      "algorith": 4826,
      "_tpr": 4827,
      "tom": 4828,
      "att": 4829,
      "neura": 4830,
      "correlation_matrix": 4831,
      "_variance": 4832,
      "mesh": 4833,
      "category_": 4834,
      "guess_age": 4835,
      "flag": 4836,
      "_fscore": 4837,
      "random_forest_0": 4838,
      "max_leaf_nodes": 4839,
      "Reduce": 4840,
      "extract_": 4841,
      "OLS": 4842,
      "find": 4843,
      "sort_": 4844,
      "_var961": 4845,
      "_bow": 4846,
      "_year": 4847,
      "axes_1": 4848,
      "Fig": 4849,
      "attention": 4850,
      "_sort": 4851,
      "_size_0": 4852,
      "X_new": 4853,
      "download": 4854,
      "C_0": 4855,
      "er_0": 4856,
      "data_12": 4857,
      "labels_2": 4858,
      "_grad": 4859,
      "engine": 4860,
      "correct": 4861,
      "ket_": 4862,
      "[::": 4863,
      "_var962": 4864,
      "_var967": 4865,
      "default": 4866,
      "y_pred_proba": 4867,
      "now": 4868,
      "vmax": 4869,
      "one_ho": 4870,
      "_var963": 4871,
      "text_2": 4872,
      "preprocess": 4873,
      "_mae": 4874,
      "arison": 4875,
      "dtc": 4876,
      "param_dist": 4877,
      "iterations": 4878,
      "Analy": 4879,
      "ics": 4880,
      "_31": 4881,
      "lateau": 4882,
      "Var": 4883,
      "_var965": 4884,
      "_var966": 4885,
      "master": 4886,
      "output_0": 4887,
      "class_name": 4888,
      "ElasticNet": 4889,
      "denoise": 4890,
      "sigmoid": 4891,
      "MAX_": 4892,
      "LROnPlateau": 4893,
      "ReduceLROnPlateau": 4894,
      "X_full": 4895,
      "or_": 4896,
      "_palette": 4897,
      "ils": 4898,
      "answ": 4899,
      "_chi": 4900,
      "_var968": 4901,
      "cat_": 4902,
      "penalty": 4903,
      "duration": 4904,
      "_var969": 4905,
      "_var970": 4906,
      "600": 4907,
      "_var964": 4908,
      "xgb_": 4909,
      "_var975": 4910,
      "X_8": 4911,
      "ging": 4912,
      "extend": 4913,
      "y_true_0": 4914,
      "add_trace": 4915,
      "note": 4916,
      "int8": 4917,
      "_from_": 4918,
      "_set": 4919,
      "_var971": 4920,
      "merged": 4921,
      "Figure": 4922,
      "_by_": 4923,
      "_var972": 4924,
      "df_train_4": 4925,
      "ribution": 4926,
      "mic": 4927,
      "_var978": 4928,
      "columns_0": 4929,
      "_var973": 4930,
      "ft_range": 4931,
      "Vot": 4932,
      "_var974": 4933,
      "point_": 4934,
      "p_value": 4935,
      "_2_0": 4936,
      "_scorer": 4937,
      "SGDClassifier": 4938,
      "Layer": 4939,
      "Al": 4940,
      "Tit": 4941,
      "_var976": 4942,
      "bootst": 4943,
      "set_style": 4944,
      "image_2": 4945,
      "_var977": 4946,
      "_te": 4947,
      "_var979": 4948,
      "m1": 4949,
      "dio": 4950,
      "result_1": 4951,
      "y_test_4": 4952,
      "store": 4953,
      "sible": 4954,
      "cv_0": 4955,
      "marg": 4956,
      "cb": 4957,
      "batch_0": 4958,
      "extract": 4959,
      "constant": 4960,
      "x_12": 4961,
      "position": 4962,
      "Ke": 4963,
      "ince": 4964,
      "KNeighborsRegressor": 4965,
      "sentiment_": 4966,
      "nb_": 4967,
      "missing_values": 4968,
      "digit": 4969,
      "selector": 4970,
      "compute": 4971,
      "cc": 4972,
      "tec": 4973,
      "TS": 4974,
      "binder": 4975,
      "_var980": 4976,
      "DA": 4977,
      "bagg": 4978,
      "axis1": 4979,
      "_bet": 4980,
      "_input": 4981,
      "cum": 4982,
      "cret": 4983,
      "labelsize": 4984,
      "df_copy": 4985,
      "n_iter": 4986,
      "dataset_4": 4987,
      "Y_val": 4988,
      "sel": 4989,
      "Reg": 4990,
      "_var981": 4991,
      "_classe": 4992,
      "patches": 4993,
      "LAS": 4994,
      "_var983": 4995,
      "ary_": 4996,
      "cos": 4997,
      "train_images": 4998,
      "s_adjust": 4999,
      "tick_params": 5000,
      "PI": 5001,
      "move": 5002,
      "contour": 5003,
      "_var984": 5004,
      "_rmse": 5005,
      "_cluster": 5006,
      "_texts": 5007,
      "_var982": 5008,
      "])": 5009,
      "_freq": 5010,
      "Q1": 5011,
      "Rob": 5012,
      "onth": 5013,
      "history_1": 5014,
      "Comp": 5015,
      "correct_": 5016,
      "NAM": 5017,
      "_var987": 5018,
      "ATE": 5019,
      "pivot": 5020,
      "clf_4": 5021,
      "subplots_adjust": 5022,
      "())": 5023,
      "most_": 5024,
      "test_acc": 5025,
      "_var985": 5026,
      "vgg": 5027,
      "index_1": 5028,
      "test_df_3": 5029,
      "file_0": 5030,
      "test_7": 5031,
      "train_data_2": 5032,
      "ness": 5033,
      "_var986": 5034,
      "dence": 5035,
      "after": 5036,
      "_version": 5037,
      "Embarked": 5038,
      "train_features": 5039,
      "catboost": 5040,
      "rolling": 5041,
      "_var988": 5042,
      "ExtraTreesClassifier": 5043,
      "irec": 5044,
      "_var989": 5045,
      "repeat": 5046,
      "_tmp": 5047,
      "test_set_": 5048,
      "plot_tree": 5049,
      "shade": 5050,
      "player": 5051,
      "s_data": 5052,
      "df_test_3": 5053,
      "_layer": 5054,
      "ases": 5055,
      "reverse": 5056,
      "_var993": 5057,
      "batch_size_0": 5058,
      "inv": 5059,
      "bool": 5060,
      "root": 5061,
      "_var990": 5062,
      "_validate": 5063,
      "graphviz": 5064,
      "accuracy_2": 5065,
      "_var996": 5066,
      "annotate": 5067,
      "plan": 5068,
      "_var994": 5069,
      "Categorical": 5070,
      "train_generator": 5071,
      "_var995": 5072,
      "_images": 5073,
      "_color": 5074,
      "_var997": 5075,
      "fitted": 5076,
      "attrib": 5077,
      "tuation": 5078,
      "classifiers": 5079,
      "_tokens": 5080,
      "ous": 5081,
      "sal": 5082,
      "_var992": 5083,
      "ween": 5084,
      "bet": 5085,
      "forward": 5086,
      "_var991": 5087,
      "epochs_0": 5088,
      "_shi": 5089,
      "_var998": 5090,
      "_preproces": 5091,
      "one_hot_": 5092,
      "RMS": 5093,
      "_data_4": 5094,
      "pred_test": 5095,
      "cuda": 5096,
      "_folds": 5097,
      "train_set_": 5098,
      "X_train_5": 5099,
      "X_train_full": 5100,
      "iqr": 5101,
      "ngra": 5102,
      "_var999": 5103,
      "ded_": 5104,
      "rfc_0": 5105,
      "struc": 5106,
      "']]": 5107,
      "_func7": 5108,
      "squeeze": 5109,
      "s_dict": 5110,
      "link": 5111,
      "img_3": 5112,
      "categorical_features": 5113,
      "train_9": 5114,
      "_case": 5115,
      "ed_1": 5116,
      "explo": 5117,
      "_vocab": 5118,
      "X_valid_0": 5119,
      "_positive_": 5120,
      "_start": 5121,
      "_co": 5122,
      "het": 5123,
      "rowsy": 5124,
      "_var1000": 5125,
      "ches": 5126,
      "Class": 5127,
      "smote": 5128,
      "test_loss": 5129,
      "attern": 5130,
      "est_": 5131,
      "rance": 5132,
      "atalities": 5133,
      "_i": 5134,
      "S_": 5135,
      "each": 5136,
      "filled": 5137,
      "ax3": 5138,
      "_var1005": 5139,
      "max_len": 5140,
      "self_20": 5141,
      "_mode": 5142,
      "unknown": 5143,
      "row_1": 5144,
      "colsample": 5145,
      "w_0": 5146,
      ")),": 5147,
      "_all": 5148,
      "sur": 5149,
      "_stop": 5150,
      "feature_names_": 5151,
      "k_1": 5152,
      "_tfi": 5153,
      "self_18": 5154,
      "_var1001": 5155,
      "_probs": 5156,
      "Stem": 5157,
      "os_": 5158,
      "pclass_": 5159,
      "_var1003": 5160,
      "Est": 5161,
      "_kws": 5162,
      "_var1004": 5163,
      "X_scaled": 5164,
      "_var1006": 5165,
      "2_3": 5166,
      "val_acc": 5167,
      "ilar": 5168,
      "shar": 5169,
      "_var1002": 5170,
      "_var1008": 5171,
      "new_df": 5172,
      "Of": 5173,
      "_var1013": 5174,
      "rfr": 5175,
      "_var1007": 5176,
      "sentiment": 5177,
      "wine": 5178,
      "_var1010": 5179,
      "ked_": 5180,
      "projec": 5181,
      "OH": 5182,
      "als": 5183,
      "_var1018": 5184,
      "_var1017": 5185,
      "s_11": 5186,
      "_var1009": 5187,
      "06": 5188,
      "_l": 5189,
      "_correc": 5190,
      "movie": 5191,
      "percep": 5192,
      "IG": 5193,
      "_var1012": 5194,
      "_var1014": 5195,
      "tick_marks": 5196,
      "_min": 5197,
      "arima": 5198,
      "_var1019": 5199,
      "_train_3": 5200,
      "_var1016": 5201,
      "_var1011": 5202,
      "colsample_by": 5203,
      "Number": 5204,
      "Stemmer": 5205,
      "params_0": 5206,
      "run_cell": 5207,
      "to_numeric": 5208,
      "run_cell_magic": 5209,
      "_var1020": 5210,
      "_dis": 5211,
      "105": 5212,
      "y_pred_6": 5213,
      "_Pro": 5214,
      "test_df_4": 5215,
      "111": 5216,
      "kmeans": 5217,
      "rand_": 5218,
      "121": 5219,
      "Inde": 5220,
      "ham": 5221,
      "_var1015": 5222,
      "vera": 5223,
      "_dates": 5224,
      "()]": 5225,
      "_var1021": 5226,
      "add_legend": 5227,
      "background_": 5228,
      "_A": 5229,
      "tml": 5230,
      "titanic_test": 5231,
      "yn": 5232,
      "_var1025": 5233,
      "rf_val": 5234,
      "_var1023": 5235,
      "chor": 5236,
      "_var1024": 5237,
      "codes": 5238,
      "700": 5239,
      "ing1D": 5240,
      "iday": 5241,
      "_var1022": 5242,
      "_var1026": 5243,
      "ax_7": 5244,
      "arget": 5245,
      "_ts": 5246,
      "_var1028": 5247,
      "175": 5248,
      "_var1027": 5249,
      "genre": 5250,
      "score_1": 5251,
      "regplot": 5252,
      "training_data": 5253,
      "_var1029": 5254,
      "zoom": 5255,
      "c_2": 5256,
      "elastic": 5257,
      "gray": 5258,
      "_var1030": 5259,
      "viol": 5260,
      "hic": 5261,
      "_var1031": 5262,
      "reino": 5263,
      "image_size": 5264,
      "_var1032": 5265,
      "Predict": 5266,
      "gs_": 5267,
      "img_array": 5268,
      "_pipe": 5269,
      "train_df_6": 5270,
      "ved_": 5271,
      "COLOR": 5272,
      "_categor": 5273,
      "dition": 5274,
      "x_13": 5275,
      "_inches": 5276,
      "lete": 5277,
      "df_s": 5278,
      "test_features": 5279,
      "name_1": 5280,
      "_to_sequences": 5281,
      "simple": 5282,
      "Robust": 5283,
      "3_1": 5284,
      "_fn": 5285,
      "GG": 5286,
      "Text": 5287,
      "expand": 5288,
      "texts_to_sequences": 5289,
      "_review": 5290,
      "kernel_regularizer": 5291,
      "aggreg": 5292,
      "_var1033": 5293,
      "grad": 5294,
      "y_tr": 5295,
      "X_val_0": 5296,
      "imputed": 5297,
      "Best": 5298,
      "_positive_rate": 5299,
      "Pre": 5300,
      "ia": 5301,
      "_N": 5302,
      "count_1": 5303,
      "erceptron": 5304,
      "Patient": 5305,
      "model_11": 5306,
      "object_": 5307,
      "yy": 5308,
      "ert_": 5309,
      "_count_": 5310,
      "rounds": 5311,
      "txt": 5312,
      "test_accuracy": 5313,
      "_var1039": 5314,
      "_var1045": 5315,
      "_var1046": 5316,
      "catplot": 5317,
      "_block": 5318,
      "over_sampling": 5319,
      "_var1036": 5320,
      "_var1043": 5321,
      "137": 5322,
      "Analysis": 5323,
      "_var1035": 5324,
      "_var1042": 5325,
      "_var1047": 5326,
      "hp": 5327,
      "hstack": 5328,
      "iplot": 5329,
      "_var1037": 5330,
      "_var1044": 5331,
      "embeddings_": 5332,
      "sugg": 5333,
      "cname": 5334,
      "_var1038": 5335,
      "_var1048": 5336,
      "inputs_0": 5337,
      "bootstrap": 5338,
      "explode": 5339,
      "col_3": 5340,
      "logit": 5341,
      "AveragePooling2D": 5342,
      "itude": 5343,
      "_var1034": 5344,
      "transfor": 5345,
      "perceptron": 5346,
      "X_test_5": 5347,
      "neural_": 5348,
      "cli": 5349,
      "_cn": 5350,
      "imator": 5351,
      "mask_0": 5352,
      "contains": 5353,
      "Un": 5354,
      "shop": 5355,
      "layer_0": 5356,
      "Loader": 5357,
      "1_4": 5358,
      "DO": 5359,
      "ET": 5360,
      "md": 5361,
      "_prop": 5362,
      "_var1041": 5363,
      "entropy": 5364,
      "_train_score": 5365,
      "d_4": 5366,
      "image_3": 5367,
      "knn_1": 5368,
      "LGBMClassifier": 5369,
      "macro": 5370,
      "_var1040": 5371,
      "_var1049": 5372,
      "_var1051": 5373,
      "_var1052": 5374,
      "intercept": 5375,
      "_predict_": 5376,
      "IMG": 5377,
      "factorplot": 5378,
      "esture": 5379,
      "_flip": 5380,
      "fig_5": 5381,
      "_var1054": 5382,
      "df_22": 5383,
      "dataset_34": 5384,
      "'):": 5385,
      "_xgb": 5386,
      "_var1055": 5387,
      "pclass_dummies": 5388,
      "_imp": 5389,
      "tfi": 5390,
      "bag": 5391,
      "num_0": 5392,
      "_var1057": 5393,
      "lr_2": 5394,
      "sgd": 5395,
      "isnan": 5396,
      "_var1058": 5397,
      "stacked": 5398,
      "_var1053": 5399,
      "Loss": 5400,
      "y_predicted": 5401,
      "reat": 5402,
      "vider": 5403,
      "gradient": 5404,
      "_var1050": 5405,
      "cat_features": 5406,
      "path_0": 5407,
      "_img": 5408,
      "ior": 5409,
      "sity": 5410,
      "rescale": 5411,
      "train_idx": 5412,
      "predictors": 5413,
      "images_": 5414,
      "ampled_": 5415,
      "_to_array": 5416,
      "number_": 5417,
      "Estimator": 5418,
      "_var1059": 5419,
      "_var1061": 5420,
      "class_mode": 5421,
      "Set": 5422,
      "_var1065": 5423,
      "ridge_0": 5424,
      "covid": 5425,
      "ves": 5426,
      "r2_0": 5427,
      "_var1056": 5428,
      "_var1060": 5429,
      "sample_submission": 5430,
      "ING": 5431,
      "remove_": 5432,
      "PIL": 5433,
      "ing_0": 5434,
      "_val_0": 5435,
      "rib": 5436,
      "245": 5437,
      "grouped_": 5438,
      "knn_2": 5439,
      "_grid_0": 5440,
      "__1": 5441,
      "_fpr": 5442,
      "DataLoader": 5443,
      "notnull": 5444,
      "dataset_6": 5445,
      "performance": 5446,
      "_bias": 5447,
      "i_11": 5448,
      "recall_0": 5449,
      "Dist": 5450,
      "_var1064": 5451,
      "_var1069": 5452,
      "_var1062": 5453,
      "x_test_2": 5454,
      "val_predictions": 5455,
      "df_21": 5456,
      "embark": 5457,
      "_of": 5458,
      "test_score": 5459,
      "new_data": 5460,
      "used_": 5461,
      "127": 5462,
      "_var1073": 5463,
      "lasso_0": 5464,
      "cols_": 5465,
      "cleaned_": 5466,
      "_vectors": 5467,
      "augmen": 5468,
      "For": 5469,
      "_var1070": 5470,
      "cluster_": 5471,
      "rmsle": 5472,
      "5_0": 5473,
      "_M": 5474,
      "a_2": 5475,
      "ema": 5476,
      "oob": 5477,
      "_var1066": 5478,
      "expec": 5479,
      "eek": 5480,
      "person_dummies": 5481,
      "violin": 5482,
      "channels": 5483,
      "_var1071": 5484,
      "_var1074": 5485,
      "precision_recall_curve": 5486,
      "erence": 5487,
      "dered": 5488,
      "_1_0": 5489,
      "uth": 5490,
      "_var1063": 5491,
      "_var1068": 5492,
      "_var1075": 5493,
      "_final_0": 5494,
      "dpi": 5495,
      "_var1072": 5496,
      "asic": 5497,
      "FILE": 5498,
      "X_9": 5499,
      "_var1076": 5500,
      "predictions_2": 5501,
      "earson": 5502,
      "column_name": 5503,
      "_child": 5504,
      "03": 5505,
      "Bin": 5506,
      "p_2": 5507,
      "axs_0": 5508,
      "_classification": 5509,
      "_var1067": 5510,
      "_var1077": 5511,
      "_prices": 5512,
      "_F": 5513,
      "_idx": 5514,
      "_sk": 5515,
      "test_preds": 5516,
      "Data_0": 5517,
      "loss_1": 5518,
      "verall": 5519,
      "train_pred": 5520,
      "submit": 5521,
      "hmin": 5522,
      "oost": 5523,
      "last_": 5524,
      "feats": 5525,
      "sub_0": 5526,
      "like": 5527,
      "_var1078": 5528,
      "interval": 5529,
      "_var1079": 5530,
      "newaxis": 5531,
      "normalized": 5532,
      "_binar": 5533,
      "infl": 5534,
      "x_14": 5535,
      "Gen": 5536,
      "ting": 5537,
      "filename_0": 5538,
      "VotingClassifier": 5539,
      "ay_": 5540,
      "_pool": 5541,
      "ogram": 5542,
      "Title": 5543,
      "RobustScaler": 5544,
      "Trans": 5545,
      "_mo": 5546,
      "_var1080": 5547,
      "_dict_0": 5548,
      "exists": 5549,
      "_for": 5550,
      "insu": 5551,
      "_tim": 5552,
      "train_10": 5553,
      "df_test_4": 5554,
      "lin_reg": 5555,
      "Y_test_0": 5556,
      "Spec": 5557,
      "p1": 5558,
      "_var1081": 5559,
      "squared": 5560,
      "led_": 5561,
      "_test_3": 5562,
      "self_28": 5563,
      "step_1": 5564,
      "make_scorer": 5565,
      "SES": 5566,
      "logistic_regression": 5567,
      "smo": 5568,
      "file_name": 5569,
      "ARIMA": 5570,
      "while": 5571,
      "Sampler": 5572,
      "precision_0": 5573,
      "fit_resample": 5574,
      "BaggingClassifier": 5575,
      "x_data": 5576,
      "_var1082": 5577,
      "transformers": 5578,
      "idirec": 5579,
      "187": 5580,
      "_summar": 5581,
      "135": 5582,
      "rmse_0": 5583,
      "m_2": 5584,
      "size_0": 5585,
      "axis2": 5586,
      "_var1083": 5587,
      "_var1086": 5588,
      "ons": 5589,
      "train_dataset": 5590,
      "select": 5591,
      "_var1087": 5592,
      "_len": 5593,
      "lm_0": 5594,
      "test_data_2": 5595,
      "maj": 5596,
      "load_img": 5597,
      "_var1085": 5598,
      "barh": 5599,
      "collect": 5600,
      "_var1084": 5601,
      "axes_2": 5602,
      "find_": 5603,
      "neural_network": 5604,
      "violinplot": 5605,
      "_var1089": 5606,
      "_var1090": 5607,
      "df_train_5": 5608,
      "rnn": 5609,
      "row_2": 5610,
      "family": 5611,
      "num_features": 5612,
      "145": 5613,
      "cv_scores": 5614,
      "checkpoint": 5615,
      "Mix": 5616,
      "R_0": 5617,
      "_char": 5618,
      "_series": 5619,
      "anom": 5620,
      "andar": 5621,
      "_var1088": 5622,
      "Discrimin": 5623,
      "sort_index": 5624,
      "idirectional": 5625,
      "metrics_": 5626,
      "autoencoder": 5627,
      "Deta": 5628,
      "_model_": 5629,
      "skip": 5630,
      "title_0": 5631,
      "boo": 5632,
      "EC": 5633,
      "fontweight": 5634,
      "aky": 5635,
      "win": 5636,
      "market": 5637,
      "bh": 5638,
      "set_ylim": 5639,
      "linreg": 5640,
      "Leaky": 5641,
      "LeakyReLU": 5642,
      "pearson": 5643,
      "ven": 5644,
      "__name": 5645,
      "168": 5646,
      "df_24": 5647,
      "sgd_": 5648,
      "__name__": 5649,
      "_pad": 5650,
      "_ds": 5651,
      "_var1091": 5652,
      "_var1092": 5653,
      "dataset_9": 5654,
      "b_": 5655,
      "imum": 5656,
      "lot": 5657,
      "models_0": 5658,
      "int64": 5659,
      "155": 5660,
      "_utils": 5661,
      "ds_": 5662,
      "trained_": 5663,
      "_fold_": 5664,
      "data_15": 5665,
      "tpu": 5666,
      "2v": 5667,
      "Size": 5668,
      "train_df_5": 5669,
      "feature_names_out": 5670,
      "_var1093": 5671,
      "conf_mat": 5672,
      "take": 5673,
      "999": 5674,
      "_func8": 5675,
      "235": 5676,
      "embeddings": 5677,
      "hr": 5678,
      "df_raw": 5679,
      "y_8": 5680,
      "excel": 5681,
      "_var1094": 5682,
      "_cols_0": 5683,
      "Details": 5684,
      "user_": 5685,
      "_text_": 5686,
      "dise": 5687,
      "188": 5688,
      "tree_0": 5689,
      "description": 5690,
      "Xtest": 5691,
      "sil": 5692,
      "_var1099": 5693,
      "fpr_0": 5694,
      "_valid_": 5695,
      "_var1098": 5696,
      "iowa_": 5697,
      "_between": 5698,
      "_errors": 5699,
      "i_12": 5700,
      "pping_": 5701,
      "train_y_0": 5702,
      "self_19": 5703,
      "165": 5704,
      "check_output": 5705,
      "_var1097": 5706,
      "hot_": 5707,
      "_rep": 5708,
      "compare": 5709,
      "isinstance": 5710,
      "Ber": 5711,
      "x_valid": 5712,
      "122": 5713,
      "WOR": 5714,
      "algo": 5715,
      "_sl": 5716,
      "gnb": 5717,
      "ide": 5718,
      "utes": 5719,
      "testing_": 5720,
      "scaler_1": 5721,
      "..": 5722,
      "_stack": 5723,
      "_var1095": 5724,
      "vert": 5725,
      "warm": 5726,
      "_var1100": 5727,
      "_var1096": 5728,
      "random_search": 5729,
      "augment": 5730,
      "test_images": 5731,
      "y_test_5": 5732,
      "_var1103": 5733,
      "selected_features": 5734,
      "micro": 5735,
      "08": 5736,
      "anchor": 5737,
      "explained": 5738,
      "ral": 5739,
      "PatientDetails": 5740,
      "lg": 5741,
      "ross": 5742,
      "res_1": 5743,
      "108": 5744,
      "205": 5745,
      "_var1102": 5746,
      "_back": 5747,
      "x_15": 5748,
      "cross_validation": 5749,
      "hotel": 5750,
      "z_0": 5751,
      "full_data": 5752,
      "365": 5753,
      "ds_1": 5754,
      "_34": 5755,
      "audio": 5756,
      "254": 5757,
      "138": 5758,
      "_var1101": 5759,
      "BoostRegressor": 5760,
      "iowa_file_path": 5761,
      "crop": 5762,
      "pt": 5763,
      "cvt": 5764,
      "_var1104": 5765,
      "LEN": 5766,
      "Mixin": 5767,
      "aw": 5768,
      "_to_re": 5769,
      "build_": 5770,
      "SP": 5771,
      "test_8": 5772,
      "area": 5773,
      "WithPatientDetails": 5774,
      "_Provider": 5775,
      "_ProviderWithPatientDetails": 5776,
      "__version": 5777,
      "SEED": 5778,
      "event_": 5779,
      "reduced": 5780,
      "chedul": 5781,
      "__version__": 5782,
      "ef": 5783,
      "158": 5784,
      "tpr_0": 5785,
      "population": 5786,
      "VAL": 5787,
      "ik": 5788,
      "y_prob": 5789,
      "_var1110": 5790,
      "_35": 5791,
      "learning_curve": 5792,
      "cvtColor": 5793,
      "Rate": 5794,
      "image_4": 5795,
      "_var1105": 5796,
      "_var1106": 5797,
      "titanic_df_1": 5798,
      "_var1109": 5799,
      "iterrows": 5800,
      "_en": 5801,
      "Xtrain": 5802,
      "dfTest": 5803,
      "_var1108": 5804,
      "img_size": 5805,
      "erg": 5806,
      "gex": 5807,
      "dados": 5808,
      "_column": 5809,
      "survived": 5810,
      "geo": 5811,
      "104": 5812,
      "source": 5813,
      "Dict": 5814,
      "_models": 5815,
      "_var1107": 5816,
      "178": 5817,
      "img_to_array": 5818,
      "empty": 5819,
      "les": 5820,
      "_center": 5821,
      "208": 5822,
      "joint": 5823,
      "neighbor": 5824,
      "insurance": 5825,
      "_metrics": 5826,
      "_sim": 5827,
      "107": 5828,
      "y_predict_": 5829,
      "probability": 5830,
      "iowa_model_0": 5831,
      "df_temp": 5832,
      "s_df_0": 5833,
      "_scaled_": 5834,
      "top_": 5835,
      "disease": 5836,
      "_var1114": 5837,
      "preds_1": 5838,
      "ulate_": 5839,
      "prepar": 5840,
      "decay": 5841,
      "Bidirectional": 5842,
      "UN": 5843,
      "_pair": 5844,
      "258": 5845,
      "cat_cols": 5846,
      "bagging": 5847,
      "explained_variance": 5848,
      "int32": 5849,
      "ax_8": 5850,
      "text_3": 5851,
      "util": 5852,
      "_types": 5853,
      "_var1115": 5854,
      "titanic_df_4": 5855,
      "q1": 5856,
      "input_data": 5857,
      "df_test_5": 5858,
      "RFE": 5859,
      "iowa_model": 5860,
      "outcome": 5861,
      "185": 5862,
      "192": 5863,
      "aggle": 5864,
      "categorical_cols": 5865,
      "sb": 5866,
      "_var1120": 5867,
      "_var1116": 5868,
      "_var1113": 5869,
      "195": 5870,
      "_var1111": 5871,
      "_positive": 5872,
      "_scaled_0": 5873,
      "_parameters": 5874,
      "_var1112": 5875,
      "_var1119": 5876,
      "set_xticks": 5877,
      "es_1": 5878,
      "get_feature_names_out": 5879,
      "scores_1": 5880,
      "dif": 5881,
      "vince": 5882,
      "label_2": 5883,
      "gbc": 5884,
      "265": 5885,
      "graph_": 5886,
      "cabin": 5887,
      "_var1118": 5888,
      "set_size": 5889,
      "124": 5890,
      "_dic": 5891,
      "238": 5892,
      "undersample": 5893,
      "lemmatize": 5894,
      "_order": 5895,
      "mati": 5896,
      "144": 5897,
      "xgb_model": 5898,
      "serv": 5899,
      "_work": 5900,
      "bnb": 5901,
      "trac": 5902,
      "insert": 5903,
      "sin": 5904,
      "_var1117": 5905,
      "df_23": 5906,
      "data_14": 5907,
      "pipeline_0": 5908,
      "MP": 5909,
      "_ST": 5910,
      "sampled": 5911,
      "arage": 5912,
      "167": 5913,
      "cm_2": 5914,
      "784": 5915,
      "fraud_": 5916,
      "Lem": 5917,
      "b_1": 5918,
      "ination": 5919,
      "model1_0": 5920,
      "ated_": 5921,
      "specific": 5922,
      "anced": 5923,
      "_var1124": 5924,
      "means": 5925,
      "_var1121": 5926,
      "min_child": 5927,
      "ATION": 5928,
      "weight_": 5929,
      "So": 5930,
      "fidence": 5931,
      "out_0": 5932,
      "_on_full": 5933,
      "Cabin": 5934,
      "ail": 5935,
      "rb": 5936,
      "198": 5937,
      "_var1123": 5938,
      "Hist": 5939,
      "alt": 5940,
      "count_2": 5941,
      "148": 5942,
      "_var1127": 5943,
      "_region": 5944,
      "LASSES": 5945,
      "html": 5946,
      "test_9": 5947,
      "log_error": 5948,
      "_var1122": 5949,
      "_var1128": 5950,
      "X_10": 5951,
      "_coef": 5952,
      "ture": 5953,
      "_33": 5954,
      "157": 5955,
      "ordinal": 5956,
      "_var1131": 5957,
      "img_4": 5958,
      "Colormap": 5959,
      "_avg": 5960,
      "tren": 5961,
      "center": 5962,
      "data_clean": 5963,
      "itho": 5964,
      "197": 5965,
      "248": 5966,
      "_cal": 5967,
      "_var1132": 5968,
      "new_0": 5969,
      "self_21": 5970,
      "lstm_": 5971,
      "bike": 5972,
      "_ex": 5973,
      "tries": 5974,
      "_var1126": 5975,
      "early_stopping_": 5976,
      "rf_1": 5977,
      "tree_": 5978,
      "ING_": 5979,
      "AC": 5980,
      "death": 5981,
      "268": 5982,
      "continu": 5983,
      "126": 5984,
      "param_grid_": 5985,
      "skewed_": 5986,
      "crete": 5987,
      "ithout_": 5988,
      "LO": 5989,
      "g_1": 5990,
      "_var1125": 5991,
      "logits": 5992,
      "_var1138": 5993,
      "rf_model_on_full": 5994,
      "Shuffle": 5995,
      "RMSprop": 5996,
      "cols_1": 5997,
      "test_predictions": 5998,
      "_var1130": 5999,
      "dataset_12": 6000,
      "colsample_bytree": 6001,
      "No": 6002,
      "r_1": 6003,
      "train_X_0": 6004,
      "_var1134": 6005,
      "ames_": 6006,
      "mutation": 6007,
      "Discriminant": 6008,
      "cheduler": 6009,
      "Ho": 6010,
      "156": 6011,
      "result_2": 6012,
      "OP": 6013,
      "income": 6014,
      "106": 6015,
      "_categorical": 6016,
      "_var1137": 6017,
      "_var1139": 6018,
      "tivity": 6019,
      "Prediction": 6020,
      "Port": 6021,
      "as_": 6022,
      "_var1129": 6023,
      "indices_0": 6024,
      "sequence_length": 6025,
      "calculate_": 6026,
      "content": 6027,
      "DiscriminantAnalysis": 6028,
      "inc": 6029,
      "_forecast": 6030,
      "177": 6031,
      "Pas": 6032,
      "257": 6033,
      "237": 6034,
      "train_data_3": 6035,
      "_train_data": 6036,
      "index_2": 6037,
      "207": 6038,
      "_var1133": 6039,
      "_var1135": 6040,
      "punctuation": 6041,
      "frac": 6042,
      "iver": 6043,
      "fill_between": 6044,
      "196": 6045,
      "_var1136": 6046,
      "features_2": 6047,
      "pca_0": 6048,
      "res_2": 6049,
      "rnd_": 6050,
      "_from_directory": 6051,
      "f_2": 6052,
      "flat": 6053,
      "y_data": 6054,
      "export_": 6055,
      "UT": 6056,
      "delete": 6057,
      "VGG": 6058,
      "_linear": 6059,
      "uns": 6060,
      "list_0": 6061,
      "166": 6062,
      "Row": 6063,
      "_var1140": 6064,
      "express": 6065,
      "h_0": 6066,
      "147": 6067,
      "_var1141": 6068,
      "_var1142": 6069,
      "_var1147": 6070,
      "emale": 6071,
      "_support": 6072,
      "ci": 6073,
      "cross_val_predict": 6074,
      "_tuned": 6075,
      "_cap": 6076,
      "267": 6077,
      "flow_from_directory": 6078,
      "svm_0": 6079,
      "countries": 6080,
      "handle_": 6081,
      "Lemmati": 6082,
      "vline": 6083,
      "_var1145": 6084,
      "247": 6085,
      "_test_data": 6086,
      "onehot_": 6087,
      "_var1146": 6088,
      "hline": 6089,
      "dataset_28": 6090,
      "encoded_0": 6091,
      "diabetes_df": 6092,
      "font_scale": 6093,
      "_var1149": 6094,
      "ts_1": 6095,
      "_var1144": 6096,
      "self_22": 6097,
      "kwargs": 6098,
      "ys": 6099,
      "_var1148": 6100,
      "176": 6101,
      "]]": 6102,
      "erStemmer": 6103,
      "near": 6104,
      "_path_0": 6105,
      "randn": 6106,
      "identit": 6107,
      "_var1143": 6108,
      "bottom": 6109,
      "preds_": 6110,
      "param_grid_0": 6111,
      "ous_": 6112,
      "float64": 6113,
      "cnf": 6114,
      "ShuffleSplit": 6115,
      "reduced_": 6116,
      "most_common": 6117,
      "Lemmatizer": 6118,
      "axhline": 6119,
      "pred_2": 6120,
      "_var1150": 6121,
      "cross_validate": 6122,
      "_name_0": 6123,
      "average_age": 6124,
      "Bl": 6125,
      "184": 6126,
      "MaxPooling1D": 6127,
      "include_top": 6128,
      "NetLemmatizer": 6129,
      "BaseEstimator": 6130,
      "TU": 6131,
      "s_12": 6132,
      "states": 6133,
      "drowsy": 6134,
      "tte": 6135,
      "tsa": 6136,
      "df_train_": 6137,
      "plot_model": 6138,
      "ity_0": 6139,
      "train_loss": 6140,
      "lish": 6141,
      "feature_1": 6142,
      "Labels": 6143,
      "temp_": 6144,
      "y_pred_rf": 6145,
      "poly_": 6146,
      "_feats": 6147,
      "loade": 6148,
      "005": 6149,
      "neur": 6150,
      "_var1151": 6151,
      "self_24": 6152,
      "solution": 6153,
      "ized_": 6154,
      "ummy": 6155,
      "WordNetLemmatizer": 6156,
      "fig_6": 6157,
      "204": 6158,
      "133": 6159,
      "_var1157": 6160,
      "234": 6161,
      "fraud": 6162,
      "credit_": 6163,
      "_std_": 6164,
      "categorical_columns": 6165,
      "outlier_": 6166,
      "KBest": 6167,
      "n_2": 6168,
      "data_frame": 6169,
      "edColormap": 6170,
      "_var1152": 6171,
      "ListedColormap": 6172,
      "ribute": 6173,
      "nr": 6174,
      "_var1166": 6175,
      "dataset_11": 6176,
      "uette": 6177,
      "134": 6178,
      "houette": 6179,
      "_func9": 6180,
      "_var1159": 6181,
      "_var1161": 6182,
      "_var1169": 6183,
      "df_25": 6184,
      "_dict_1": 6185,
      "ributions": 6186,
      "df_sub": 6187,
      "_var1153": 6188,
      "_var1156": 6189,
      "_var1160": 6190,
      "_tick": 6191,
      "let_": 6192,
      "174": 6193,
      "_var1158": 6194,
      "_var1163": 6195,
      "_var1165": 6196,
      "_var1170": 6197,
      "_10B": 6198,
      "_ids": 6199,
      "y_pred_prob": 6200,
      "_style": 6201,
      "199": 6202,
      "_var1154": 6203,
      "_var1162": 6204,
      "probabilities": 6205,
      "df1_1": 6206,
      "Index": 6207,
      "bhk": 6208,
      "_score_1": 6209,
      "136": 6210,
      "_var1167": 6211,
      "df_train_6": 6212,
      "pk": 6213,
      "y_prediction": 6214,
      "186": 6215,
      "_var1168": 6216,
      "disp": 6217,
      "df2_1": 6218,
      "fake": 6219,
      "SelectKBest": 6220,
      "Po": 6221,
      "fer": 6222,
      "test_data_": 6223,
      "y_pred2": 6224,
      "236": 6225,
      "dirs": 6226,
      "silhouette": 6227,
      "adow": 6228,
      "lencoder": 6229,
      "_var1164": 6230,
      "df_train_7": 6231,
      "svm_clf": 6232,
      "heart_": 6233,
      "ron": 6234,
      "model_12": 6235,
      "trip": 6236,
      "col_4": 6237,
      "eps": 6238,
      "_var1155": 6239,
      "support": 6240,
      "early_stopping_rounds": 6241,
      "l1": 6242,
      "axvline": 6243,
      "164": 6244,
      "_var1178": 6245,
      "landmarks": 6246,
      "cpu": 6247,
      "hum": 6248,
      "model2_0": 6249,
      "_var1173": 6250,
      "_var1177": 6251,
      "soft": 6252,
      "confirmed": 6253,
      "ordered": 6254,
      "df_cat": 6255,
      "evaluate_model": 6256,
      "artist": 6257,
      "nes": 6258,
      "annot_": 6259,
      "_var1171": 6260,
      "best_only": 6261,
      "_visible": 6262,
      "arra": 6263,
      "col_": 6264,
      "alignment": 6265,
      "IO": 6266,
      "delim": 6267,
      "243": 6268,
      "_var1174": 6269,
      "_var1181": 6270,
      "firmed": 6271,
      "ar_": 6272,
      "atist": 6273,
      "load_iris": 6274,
      "non_": 6275,
      "_var1172": 6276,
      "save_best_only": 6277,
      "109": 6278,
      "get_x": 6279,
      "_var1179": 6280,
      "Crossentropy": 6281,
      "Target": 6282,
      "Y_2": 6283,
      "_vals": 6284,
      "154": 6285,
      "andid": 6286,
      "_var1175": 6287,
      "_var1180": 6288,
      "mse_": 6289,
      "some": 6290,
      "day_": 6291,
      "boundary": 6292,
      "vmin": 6293,
      "stud": 6294,
      "Recall": 6295,
      "up_": 6296,
      "_var1176": 6297,
      "_var1182": 6298,
      "self_23": 6299,
      "ffix": 6300,
      "acc_1": 6301,
      "logging": 6302,
      "clf_5": 6303,
      "194": 6304,
      "_multi": 6305,
      "Y_pred_0": 6306,
      "segment": 6307,
      "ngram_": 6308,
      "eli": 6309,
      "103": 6310,
      "key_0": 6311,
      "244": 6312,
      "_var1186": 6313,
      "x_16": 6314,
      "submission_1": 6315,
      "props": 6316,
      "set_size_inches": 6317,
      "_train_4": 6318,
      "adab": 6319,
      "146": 6320,
      "_var1183": 6321,
      "_var1185": 6322,
      "request": 6323,
      "X_train_6": 6324,
      "_var1184": 6325,
      "column_1": 6326,
      "runn": 6327,
      "algorithm": 6328,
      "sw": 6329,
      "train_11": 6330,
      "assign": 6331,
      "reshaped": 6332,
      "expm1": 6333,
      "3000": 6334,
      "random_index": 6335,
      "169": 6336,
      "input_length": 6337,
      "rm": 6338,
      "survi": 6339,
      "IMAGE_SIZE": 6340,
      "Func": 6341,
      "results_2": 6342,
      "shap_values": 6343,
      "analysis": 6344,
      "GRU": 6345,
      "cls": 6346,
      "tsne": 6347,
      "l_1": 6348,
      "root_": 6349,
      "206": 6350,
      "RAN": 6351,
      "_cnn": 6352,
      "smt": 6353,
      "negati": 6354,
      "AP": 6355,
      "RS": 6356,
      "q3": 6357,
      "probs": 6358,
      "isine": 6359,
      "timest": 6360,
      "_var1187": 6361,
      "_var1188": 6362,
      "uffer": 6363,
      "MOD": 6364,
      "PorterStemmer": 6365,
      "r_2": 6366,
      "test_image": 6367,
      "_var1191": 6368,
      "mentum": 6369,
      "AN": 6370,
      "org": 6371,
      "264": 6372,
      "CNN": 6373,
      "pivot_table": 6374,
      "mnb": 6375,
      "meas": 6376,
      "149": 6377,
      "_var1189": 6378,
      "_test_4": 6379,
      "train_f": 6380,
      "129": 6381,
      "labels_3": 6382,
      "tives": 6383,
      "imgs": 6384,
      "emplo": 6385,
      "j_3": 6386,
      "j_4": 6387,
      "159": 6388,
      "_var1190": 6389,
      "delimiter": 6390,
      "RE": 6391,
      "context": 6392,
      "_feature_": 6393,
      "task": 6394,
      "test_prediction": 6395,
      "conne": 6396,
      "stride": 6397,
      "IMG_SIZE": 6398,
      "overall": 6399,
      "prefetch": 6400,
      "266": 6401,
      "extra": 6402,
      "param_distributions": 6403,
      "R2": 6404,
      "_O": 6405,
      "uint8": 6406,
      "score_2": 6407,
      "246": 6408,
      "proper": 6409,
      "return_train_score": 6410,
      "_var1192": 6411,
      "data_17": 6412,
      "train_datagen": 6413,
      "value_0": 6414,
      "chun": 6415,
      "mul": 6416,
      "inst": 6417,
      "alle": 6418,
      "dataset_7": 6419,
      "229": 6420,
      "sch": 6421,
      "_var1194": 6422,
      "_var1198": 6423,
      "Model_0": 6424,
      "window_size": 6425,
      "jointplot": 6426,
      "hspace": 6427,
      "ts_": 6428,
      "_var1193": 6429,
      "_var1196": 6430,
      "Ar": 6431,
      "_sgd": 6432,
      "train_data_": 6433,
      "histogram": 6434,
      "_var1195": 6435,
      "batches": 6436,
      "WORDS": 6437,
      "trn_": 6438,
      "_var1199": 6439,
      "Predic": 6440,
      "n_classes": 6441,
      "read_excel": 6442,
      "_var1197": 6443,
      "_var1201": 6444,
      "discrimin": 6445,
      "->": 6446,
      "fs": 6447,
      "_train_df": 6448,
      "_counter": 6449,
      "alpha_0": 6450,
      "Coding": 6451,
      "meshgrid": 6452,
      "tra": 6453,
      "strf": 6454,
      "_var1200": 6455,
      "to_frame": 6456,
      "100000": 6457,
      "_BGR": 6458,
      "_spec": 6459,
      "COLOR_BGR": 6460,
      "ames_raw": 6461,
      "strftime": 6462,
      "COLOR_BGR2": 6463,
      "At": 6464,
      "share": 6465,
      "139": 6466,
      "outliers_": 6467,
      "_from": 6468,
      "_3D": 6469,
      "shadow": 6470,
      "189": 6471,
      "markersize": 6472,
      "eval_set": 6473,
      "209": 6474,
      "_var1203": 6475,
      "downs": 6476,
      "_no": 6477,
      "_diff": 6478,
      "normalized_": 6479,
      "rdinal": 6480,
      "Ordinal": 6481,
      "Per": 6482,
      "amount": 6483,
      "dro": 6484,
      "_var1202": 6485,
      "comparison": 6486,
      "titanic_df": 6487,
      "missing_data": 6488,
      "lem": 6489,
      "_36": 6490,
      "_val_": 6491,
      "y_pred_7": 6492,
      "179": 6493,
      "positive": 6494,
      "v_1": 6495,
      "np_utils": 6496,
      "logit_": 6497,
      "big": 6498,
      "raise": 6499,
      "df_final": 6500,
      "_var1204": 6501,
      "embedding_vector": 6502,
      "titanic_df_8": 6503,
      "hion": 6504,
      "miss": 6505,
      "y_valid_0": 6506,
      "Len": 6507,
      "Prop": 6508,
      "PATH": 6509,
      "_training_": 6510,
      "_real": 6511,
      "all_features": 6512,
      "folds": 6513,
      "min_child_weight": 6514,
      "base_": 6515,
      "attri": 6516,
      "daily": 6517,
      "dummy_": 6518,
      "tuple": 6519,
      "_max": 6520,
      "ela": 6521,
      "rgb": 6522,
      "lope": 6523,
      "233": 6524,
      "encoder_0": 6525,
      "i_13": 6526,
      "_trac": 6527,
      "dfTrain": 6528,
      "drive": 6529,
      "6_0": 6530,
      "Na": 6531,
      "gesture": 6532,
      "_var1214": 6533,
      "ension": 6534,
      "_float": 6535,
      "sharex": 6536,
      "set_visible": 6537,
      "239": 6538,
      "AUTOTU": 6539,
      "AUTOTUNE": 6540,
      "ref": 6541,
      "delay": 6542,
      "_pi": 6543,
      "ashion": 6544,
      "_var1205": 6545,
      "vide": 6546,
      "distribution": 6547,
      "F1": 6548,
      "pc": 6549,
      "_var1210": 6550,
      "unit": 6551,
      "153": 6552,
      "libros": 6553,
      "words_0": 6554,
      "pix": 6555,
      "Qu": 6556,
      "_df_": 6557,
      "_without_": 6558,
      "train_target": 6559,
      "x_train_3": 6560,
      "tol": 6561,
      "regex": 6562,
      "lev": 6563,
      "_var1213": 6564,
      "pylab": 6565,
      "_var1208": 6566,
      "RFC": 6567,
      "_var1212": 6568,
      "d_5": 6569,
      "params_1": 6570,
      "ircle": 6571,
      "sig_clf": 6572,
      "random_seed": 6573,
      "labelencoder": 6574,
      "_string": 6575,
      "Accuracy": 6576,
      "oob_score": 6577,
      "HE": 6578,
      "pped": 6579,
      "listic": 6580,
      "clf_6": 6581,
      "_var1209": 6582,
      "_var1211": 6583,
      "handle_unknown": 6584,
      "id_0": 6585,
      "Module": 6586,
      "mae_0": 6587,
      "numerical_features": 6588,
      "OrdinalEncoder": 6589,
      "LI": 6590,
      "_smo": 6591,
      "_pipeline_0": 6592,
      "raud": 6593,
      "ax_9": 6594,
      "test_17": 6595,
      "test_df_6": 6596,
      "_var1206": 6597,
      "_var1207": 6598,
      "_frequen": 6599,
      "203": 6600,
      "_rf_0": 6601,
      "2vec": 6602,
      "X_12": 6603,
      "_gb": 6604,
      "fashion": 6605,
      "_category": 6606,
      "accuracy_3": 6607,
      "249": 6608,
      "x_17": 6609,
      "_prepar": 6610,
      "msg": 6611,
      "MAE": 6612,
      "librosa": 6613,
      "inception": 6614,
      "_pop": 6615,
      "model3": 6616,
      "rows_0": 6617,
      "idx_2": 6618,
      "lead": 6619,
      "CatBoostClassifier": 6620,
      "bn": 6621,
      "_var1217": 6622,
      "actions": 6623,
      "_fare": 6624,
      "test_df_5": 6625,
      "143": 6626,
      "269": 6627,
      "_team": 6628,
      "rase": 6629,
      "ical_": 6630,
      "[('": 6631,
      "_variables": 6632,
      "_norm": 6633,
      "_var1216": 6634,
      "comple": 6635,
      "_var1215": 6636,
      "test_dataset": 6637,
      "DE": 6638,
      "dw": 6639,
      "momentum": 6640,
      "test_generator": 6641,
      "_var1221": 6642,
      "groups": 6643,
      "gradient_": 6644,
      "_with_missing": 6645,
      "ful": 6646,
      "_var1220": 6647,
      "urns": 6648,
      "condition": 6649,
      "259": 6650,
      "prediction_1": 6651,
      "goog": 6652,
      "_target_": 6653,
      "product": 6654,
      "2_4": 6655,
      "ny": 6656,
      "deliver": 6657,
      "183": 6658,
      "anomal": 6659,
      "CS": 6660,
      "resnet": 6661,
      "[:]": 6662,
      "ndarray": 6663,
      "ngram_range": 6664,
      "MODEL": 6665,
      "br": 6666,
      "_future": 6667,
      "_var1222": 6668,
      "embed_": 6669,
      "backward": 6670,
      "final_model": 6671,
      "_result": 6672,
      "163": 6673,
      "_month": 6674,
      "ResNet": 6675,
      "softmax": 6676,
      "vstack": 6677,
      "_var1218": 6678,
      "indexes": 6679,
      "train_loader": 6680,
      "193": 6681,
      "max_length": 6682,
      "points": 6683,
      "eval_metric": 6684,
      "holdo": 6685,
      "l1_": 6686,
      "t1": 6687,
      "t_5": 6688,
      "test_df_7": 6689,
      "_var1227": 6690,
      "data_16": 6691,
      "classes_0": 6692,
      "temp_0": 6693,
      "calculate": 6694,
      "explainer": 6695,
      "_nb": 6696,
      "ner": 6697,
      "_var1225": 6698,
      "_fraction": 6699,
      "173": 6700,
      "titanic_0": 6701,
      "argest": 6702,
      "cnf_matrix": 6703,
      "dr": 6704,
      "_var1219": 6705,
      "dataset_10": 6706,
      "_var1226": 6707,
      "coefs": 6708,
      "Manipulated_Al": 6709,
      "Manipulated_Alert_": 6710,
      "_var1224": 6711,
      "_var1223": 6712,
      "_var1228": 6713,
      "Multi": 6714,
      "y_test_6": 6715,
      "normalization": 6716,
      "self_25": 6717,
      "GlobalAveragePooling2D": 6718,
      "plus": 6719,
      "trainX": 6720,
      "post": 6721,
      "add_constant": 6722,
      "results_df": 6723,
      "name_2": 6724,
      "_var1229": 6725,
      "_ml": 6726,
      "_class_0": 6727,
      "_to_drop": 6728,
      "cleaned": 6729,
      "solar": 6730,
      "LGBMRegressor": 6731,
      "cp": 6732,
      "uplo": 6733,
      "dataset_19": 6734,
      "_var1231": 6735,
      "zero_": 6736,
      "answer": 6737,
      "Warning": 6738,
      "_arr": 6739,
      "train_12": 6740,
      "253": 6741,
      "_var1230": 6742,
      "df_test_": 6743,
      "percent": 6744,
      "precision_recall_fscore": 6745,
      "precision_recall_fscore_support": 6746,
      "o_0": 6747,
      "short_": 6748,
      "set_1": 6749,
      "s_13": 6750,
      "y_val_pred": 6751,
      "TransformerMixin": 6752,
      "layer_sizes": 6753,
      "embedding_": 6754,
      "balanced_": 6755,
      "confidence": 6756,
      "mean_0": 6757,
      "prec": 6758,
      "Bar": 6759,
      "loans": 6760,
      "X_test_6": 6761,
      "objects": 6762,
      "Passenger": 6763,
      "export_graphviz": 6764,
      "annot_kws": 6765,
      "],": 6766,
      "263": 6767,
      "_to_vec": 6768,
      "_37": 6769,
      "y_pred1": 6770,
      "image_5": 6771,
      "iowa_model_2": 6772,
      "b_2": 6773,
      "_value_0": 6774,
      "horizontal_flip": 6775,
      "atalo": 6776,
      "restore": 6777,
      "cancer": 6778,
      "nn_": 6779,
      "_train_test": 6780,
      "_var1233": 6781,
      "_valid_0": 6782,
      "_word_": 6783,
      "preprocess_input": 6784,
      "fli": 6785,
      "news": 6786,
      "patient_": 6787,
      "create_model": 6788,
      "holiday": 6789,
      "fac": 6790,
      "models_": 6791,
      "_var1232": 6792,
      "word_to_vec": 6793,
      "().": 6794,
      "facet": 6795,
      "test_10": 6796,
      "_var1234": 6797,
      "lr_model": 6798,
      "Stack": 6799,
      "plot_decision": 6800,
      "sym": 6801,
      "NAMES": 6802,
      "log_reg_0": 6803,
      "_var1235": 6804,
      "ataloader": 6805,
      "_na": 6806,
      "wspace": 6807,
      "_count_0": 6808,
      "word_1": 6809,
      "_param_grid": 6810,
      "d_3": 6811,
      "uest": 6812,
      "_var1238": 6813,
      "_var1239": 6814,
      "mean_squared_log_error": 6815,
      "_titanic_0": 6816,
      "gs_0": 6817,
      "strain": 6818,
      "ulli": 6819,
      "_star": 6820,
      "_var1237": 6821,
      "model_13": 6822,
      "Perceptron": 6823,
      "Str": 6824,
      "ures": 6825,
      "_var1236": 6826,
      "compan": 6827,
      "df_test_7": 6828,
      "checkpoint_": 6829,
      "iowa_model_1": 6830,
      "allel": 6831,
      "has": 6832,
      "standard": 6833,
      "f1_0": 6834,
      "dropout_": 6835,
      "get_feature_names": 6836,
      "noulli": 6837,
      "nlargest": 6838,
      "ni": 6839,
      "_var1240": 6840,
      "Mean": 6841,
      "reduction": 6842,
      "residuals": 6843,
      "train_13": 6844,
      "val_0": 6845,
      "train_ds": 6846,
      "distances": 6847,
      "validation_": 6848,
      "cycle": 6849,
      "_roc": 6850,
      "most": 6851,
      "y_9": 6852,
      "_var1243": 6853,
      "num_rows": 6854,
      "vari": 6855,
      "left_on": 6856,
      "plotting": 6857,
      "_var1242": 6858,
      "_var1244": 6859,
      "grouped": 6860,
      "ValueError": 6861,
      "De": 6862,
      "x0": 6863,
      "tr_0": 6864,
      "model_14": 6865,
      "_time_0": 6866,
      "notebook": 6867,
      "_punc": 6868,
      "_40": 6869,
      "_var1241": 6870,
      "validation_steps": 6871,
      "book_": 6872,
      "_survived": 6873,
      "ax1_0": 6874,
      "una": 6875,
      "linear_svc": 6876,
      "grid_1": 6877,
      "text_4": 6878,
      "_and_": 6879,
      "energ": 6880,
      "_flat": 6881,
      "max_0": 6882,
      "tors": 6883,
      "LR_0": 6884,
      "yhat_0": 6885,
      "Sub": 6886,
      "x3": 6887,
      "for_": 6888,
      "X_valid_": 6889,
      "conv2": 6890,
      "true_": 6891,
      "section": 6892,
      "e_1": 6893,
      "ession": 6894,
      "y_train_6": 6895,
      "get_width": 6896,
      "_var1248": 6897,
      "_var1249": 6898,
      "img_5": 6899,
      "_var1247": 6900,
      "rategy": 6901,
      "horizontalalignment": 6902,
      "Variable": 6903,
      "NaN": 6904,
      "_so": 6905,
      "landmark": 6906,
      "equal": 6907,
      "g_2": 6908,
      "ic_": 6909,
      "454": 6910,
      "my_model": 6911,
      "cnt": 6912,
      "decision_tree_0": 6913,
      "_var1245": 6914,
      "breast": 6915,
      "overs": 6916,
      "adaboost": 6917,
      "ula": 6918,
      "_pick": 6919,
      "optimal": 6920,
      "train_df_": 6921,
      "1500": 6922,
      "n_estimator": 6923,
      "hood": 6924,
      "chi2": 6925,
      "299": 6926,
      "X_11": 6927,
      "bile": 6928,
      "y_head": 6929,
      "zoom_range": 6930,
      "MB": 6931,
      "set_xlim": 6932,
      "df_26": 6933,
      "feature_columns": 6934,
      "attributes": 6935,
      "_var1246": 6936,
      "_var1251": 6937,
      "_var1252": 6938,
      "_predict_0": 6939,
      "lbl": 6940,
      "centro": 6941,
      "DOM": 6942,
      "RANDOM": 6943,
      "PassengerId": 6944,
      "a_3": 6945,
      "k_2": 6946,
      "skimage": 6947,
      "combine_0": 6948,
      "matches": 6949,
      "word_to_vec_map": 6950,
      "Callback": 6951,
      "Gra": 6952,
      "Scores": 6953,
      "gsc": 6954,
      "_var1250": 6955,
      "_paths": 6956,
      "numeric_columns": 6957,
      "IS": 6958,
      "Par": 6959,
      "d1": 6960,
      "data_train_0": 6961,
      "y_min": 6962,
      "_var1253": 6963,
      "pipe_0": 6964,
      "achine": 6965,
      "_var1255": 6966,
      "_var1258": 6967,
      "train_std": 6968,
      "_var1254": 6969,
      "phrase": 6970,
      "starts": 6971,
      "default_": 6972,
      "gl": 6973,
      "balanced": 6974,
      "names_0": 6975,
      "])]": 6976,
      "axes_3": 6977,
      "avg_": 6978,
      "output_dim": 6979,
      "convert_": 6980,
      "Manipulated_Alert_Data": 6981,
      "oint": 6982,
      "best_model_0": 6983,
      "corrmat": 6984,
      "record": 6985,
      "ingred": 6986,
      "dataset_25": 6987,
      "ictionary": 6988,
      "ake": 6989,
      "variance_": 6990,
      "google": 6991,
      "_sing": 6992,
      "get_xticklabels": 6993,
      "State": 6994,
      ").": 6995,
      "i_14": 6996,
      "_var1257": 6997,
      "mse_1": 6998,
      "_prep": 6999,
      "numerical_columns": 7000,
      "forest_0": 7001,
      "oof_test": 7002,
      "essay": 7003,
      "AB": 7004,
      "_df_5": 7005,
      "train_score": 7006,
      "classi": 7007,
      "kaggle": 7008,
      "train_new": 7009,
      "linecolor": 7010,
      "history_2": 7011,
      "numeric_features": 7012,
      "HTML": 7013,
      "pixel": 7014,
      "wd": 7015,
      "_var1256": 7016,
      "_var1261": 7017,
      "_var1262": 7018,
      "_var1265": 7019,
      "set_seed": 7020,
      "d_data": 7021,
      "_var1260": 7022,
      "_var1268": 7023,
      "x_18": 7024,
      "makedirs": 7025,
      "rotation_range": 7026,
      "std_age": 7027,
      "_slices": 7028,
      "ei": 7029,
      "flo": 7030,
      "ax_10": 7031,
      "num_words": 7032,
      "_var1263": 7033,
      "_var1269": 7034,
      "df_test_6": 7035,
      "build": 7036,
      "parameters_0": 7037,
      "_whi": 7038,
      "_var1259": 7039,
      "_var1264": 7040,
      "transformed_": 7041,
      "employ": 7042,
      "frequen": 7043,
      "examples": 7044,
      "nn_0": 7045,
      "_var1267": 7046,
      "_var1272": 7047,
      "ratings": 7048,
      "_38": 7049,
      "auran": 7050,
      "df_train_8": 7051,
      "LAB": 7052,
      "labeled": 7053,
      "_categories": 7054,
      "07": 7055,
      "X_p": 7056,
      "linal": 7057,
      "y_resampled": 7058,
      "linalg": 7059,
      "trained": 7060,
      "mbol": 7061,
      "_var1270": 7062,
      "self_26": 7063,
      "bc": 7064,
      "_var1266": 7065,
      "_var1271": 7066,
      "_values_1": 7067,
      "latent_": 7068,
      "self_29": 7069,
      "look_back": 7070,
      "startswith": 7071,
      "Dep": 7072,
      "_data_5": 7073,
      "images_2": 7074,
      "_func10": 7075,
      "_var1278": 7076,
      "_shuffle": 7077,
      "tfidf_vectorizer": 7078,
      "Bu": 7079,
      "TF": 7080,
      "_encoder": 7081,
      "bind": 7082,
      "sess": 7083,
      "train_labels_0": 7084,
      "fig_7": 7085,
      "_var1275": 7086,
      "_survi": 7087,
      "ital": 7088,
      "formula": 7089,
      "_var1273": 7090,
      "_var1274": 7091,
      "_var1279": 7092,
      "predictions_3": 7093,
      "_E": 7094,
      "colo": 7095,
      "_week": 7096,
      "_var1276": 7097,
      "lr_s": 7098,
      "province": 7099,
      "_to_anchor": 7100,
      "first_": 7101,
      "TER": 7102,
      "bbox_to_anchor": 7103,
      "Bay": 7104,
      "male": 7105,
      "val_d": 7106,
      "unstack": 7107,
      "regr_0": 7108,
      "inputs_1": 7109,
      "y_test_pred_0": 7110,
      "training_set": 7111,
      "_classes_0": 7112,
      "Sen": 7113,
      "bl": 7114,
      "hold": 7115,
      "_the": 7116,
      "trainY": 7117,
      "domain": 7118,
      "words_": 7119,
      "x_19": 7120,
      "foli": 7121,
      "Keras": 7122,
      "width_shi": 7123,
      "load_dataset": 7124,
      "GES": 7125,
      "_var1277": 7126,
      "classifier_1": 7127,
      "df_27": 7128,
      "report_": 7129,
      "appa": 7130,
      "airbnb": 7131,
      "_best_weights": 7132,
      "_summary": 7133,
      "restore_best_weights": 7134,
      "1_5": 7135,
      "Bsmt": 7136,
      "pattern": 7137,
      "dest": 7138,
      "_preds_0": 7139,
      "andardi": 7140,
      "Year": 7141,
      "_end": 7142,
      "xes": 7143,
      "set_2": 7144,
      "adult": 7145,
      "_cancer": 7146,
      "y_pred_8": 7147,
      "previ": 7148,
      "data_20": 7149,
      "right_on": 7150,
      "arge": 7151,
      "acf": 7152,
      "_var1282": 7153,
      "time_step": 7154,
      "output_1": 7155,
      "copy_0": 7156,
      "__2": 7157,
      "power": 7158,
      "w_1": 7159,
      "_2D": 7160,
      "_pred_1": 7161,
      "_var1288": 7162,
      "monthly": 7163,
      "_ridge": 7164,
      "strat": 7165,
      "1234": 7166,
      "to_list": 7167,
      "_var1280": 7168,
      "_var1281": 7169,
      "clusters": 7170,
      "titanic_df_5": 7171,
      "_var1286": 7172,
      "_var1287": 7173,
      "_var1289": 7174,
      "count_3": 7175,
      "connec": 7176,
      "vered": 7177,
      "_var1285": 7178,
      "_sorted": 7179,
      "arr_0": 7180,
      "abs_": 7181,
      "qui": 7182,
      "_var1284": 7183,
      "_list_1": 7184,
      "decision_function": 7185,
      "arim": 7186,
      "data_path": 7187,
      "LinearDiscriminantAnalysis": 7188,
      "xs": 7189,
      "_var1291": 7190,
      "_var1295": 7191,
      "ngram": 7192,
      "dataDF": 7193,
      "_var1294": 7194,
      "CO": 7195,
      "tes": 7196,
      "_var1290": 7197,
      "_var1293": 7198,
      "df_28": 7199,
      "ticker": 7200,
      "_var1283": 7201,
      "step_2": 7202,
      "shift_range": 7203,
      "imputer_0": 7204,
      "margin": 7205,
      "Blues": 7206,
      "color_palette": 7207,
      "score_": 7208,
      "_var1292": 7209,
      "_var1297": 7210,
      "process_": 7211,
      "hover": 7212,
      "dataset_27": 7213,
      "_class_": 7214,
      "fit_generator": 7215,
      "IMAGES": 7216,
      "Learning": 7217,
      "gm": 7218,
      "_wo": 7219,
      "df_filtered": 7220,
      "labels_4": 7221,
      "_countries": 7222,
      "_var1296": 7223,
      "loss_2": 7224,
      "FPR": 7225,
      "D_O": 7226,
      "memory": 7227,
      "Over": 7228,
      "1200": 7229,
      "_var1307": 7230,
      "_bar": 7231,
      "_index_0": 7232,
      "_graph": 7233,
      "Ne": 7234,
      "label_3": 7235,
      "ids_0": 7236,
      "caled": 7237,
      "lock_": 7238,
      "train_15": 7239,
      "_var1298": 7240,
      "data_train_1": 7241,
      "venue": 7242,
      "df_full": 7243,
      "dog": 7244,
      "_var1299": 7245,
      "langu": 7246,
      "Precision": 7247,
      "width_shift_range": 7248,
      "X_cv": 7249,
      "amb": 7250,
      "_callback": 7251,
      "_var1303": 7252,
      "_var1304": 7253,
      "start_date": 7254,
      "height_shift_range": 7255,
      "human": 7256,
      "testX": 7257,
      "_var1302": 7258,
      "new_col": 7259,
      "Y_train_1": 7260,
      "IMG_": 7261,
      "multi_class": 7262,
      "train_data_4": 7263,
      "all_data_1": 7264,
      "clean_text": 7265,
      "numerical_cols": 7266,
      "=(": 7267,
      "ld_": 7268,
      "nu": 7269,
      "df_encoded": 7270,
      "X_valid_1": 7271,
      "startangle": 7272,
      "confirmed_": 7273,
      "dy": 7274,
      "det": 7275,
      "_var1300": 7276,
      "train_dir": 7277,
      "construc": 7278,
      "input_0": 7279,
      "sharey": 7280,
      ")}": 7281,
      "sto": 7282,
      "geom": 7283,
      "net_0": 7284,
      "_var1301": 7285,
      "_var1305": 7286,
      "_var1308": 7287,
      "validation_generator": 7288,
      "var_0": 7289,
      "vocab_size": 7290,
      "difference": 7291,
      "suggest": 7292,
      "noulliNB": 7293,
      "hel": 7294,
      "_var1310": 7295,
      "returns": 7296,
      "acciden": 7297,
      "i_15": 7298,
      "Sales": 7299,
      "_lasso": 7300,
      "basic": 7301,
      "put": 7302,
      "df6": 7303,
      "env": 7304,
      "_39": 7305,
      "_var1311": 7306,
      "scaler_2": 7307,
      "preds_test": 7308,
      "IGHT": 7309,
      "AD": 7310,
      "ority": 7311,
      "data1_0": 7312,
      "dataset_23": 7313,
      "pos_label": 7314,
      "x_t": 7315,
      "_var1312": 7316,
      "train_14": 7317,
      "train_mean": 7318,
      "_var1306": 7319,
      "Lamb": 7320,
      "Plot": 7321,
      "oh": 7322,
      "detec": 7323,
      "important_": 7324,
      "_cases": 7325,
      "categorical_transformer": 7326,
      "feat_": 7327,
      "delivery_": 7328,
      "train_df_7": 7329,
      "class_0": 7330,
      "grams": 7331,
      "recur": 7332,
      "usage": 7333,
      "plate": 7334,
      "supp": 7335,
      "coords": 7336,
      "continuous": 7337,
      "_var1315": 7338,
      "test_11": 7339,
      "_var1309": 7340,
      "knn_model": 7341,
      "similar": 7342,
      "candid": 7343,
      "predicted_labels": 7344,
      "restauran": 7345,
      "prepare": 7346,
      "RGB": 7347,
      "mfc": 7348,
      "ureau": 7349,
      "params_": 7350,
      "grid_2": 7351,
      "9999": 7352,
      "tweets": 7353,
      "vocabular": 7354,
      "display_labels": 7355,
      "Tic": 7356,
      "maximum": 7357,
      "_rec": 7358,
      "upsampled": 7359,
      "self_27": 7360,
      "train_index_0": 7361,
      "metadata": 7362,
      "VALID": 7363,
      "on_": 7364,
      "itch": 7365,
      "lik": 7366,
      "X_train_7": 7367,
      "sensi": 7368,
      "datewise": 7369,
      "scores_2": 7370,
      "lmplot": 7371,
      "Lambda": 7372,
      "_res": 7373,
      "ty_": 7374,
      "other": 7375,
      "test_f": 7376,
      "y_batch": 7377,
      "spines": 7378,
      "lable": 7379,
      "lower_bound": 7380,
      "onehotCoding": 7381,
      "900": 7382,
      "km": 7383,
      "refit": 7384,
      "_var1314": 7385,
      "rates": 7386,
      "variables": 7387,
      "chedu": 7388,
      "cumsum": 7389,
      "tt": 7390,
      "_var1316": 7391,
      "rect": 7392,
      "load_weights": 7393,
      "450": 7394,
      "FE": 7395,
      "_fit": 7396,
      "_var1318": 7397,
      "_var1313": 7398,
      "acy": 7399,
      "__class": 7400,
      "_card": 7401,
      "edu": 7402,
      "dia": 7403,
      "get_weights": 7404,
      "__class__": 7405,
      "_var1319": 7406,
      "Valid": 7407,
      "breast_cancer": 7408,
      "360": 7409,
      "Sparse": 7410,
      "df_num": 7411,
      "aves": 7412,
      "_svc_0": 7413,
      "df2_2": 7414,
      "caption": 7415,
      "our": 7416,
      "y_p": 7417,
      "ytest_0": 7418,
      "2020": 7419,
      "low_": 7420,
      "Function": 7421,
      "qcut": 7422,
      "s2": 7423,
      "detail": 7424,
      "score_3": 7425,
      "dataset_14": 7426,
      "_var1322": 7427,
      "_features_1": 7428,
      "conv_": 7429,
      "periods": 7430,
      "embark_dummies": 7431,
      "Garage": 7432,
      "features_4": 7433,
      "Conv2d": 7434,
      "y_true_1": 7435,
      "docu": 7436,
      "gradients": 7437,
      "coefficient": 7438,
      "running_": 7439,
      "CLASSES": 7440,
      "aa": 7441,
      "x1_0": 7442,
      "_var1317": 7443,
      "train_model": 7444,
      "test_std": 7445,
      "subprocess": 7446,
      "val_idx": 7447,
      "x_20": 7448,
      "x_min": 7449,
      "_text_0": 7450,
      "iris_0": 7451,
      "_thresh": 7452,
      "'.": 7453,
      "_format": 7454,
      "_boundary": 7455,
      "_var1323": 7456,
      "val_predictions_0": 7457,
      "plotnumber": 7458,
      "ado": 7459,
      "rf_2": 7460,
      "permutation": 7461,
      "ELS": 7462,
      "BernoulliNB": 7463,
      "symlink": 7464,
      "_ph": 7465,
      "_train_5": 7466,
      "show_": 7467,
      "_var1327": 7468,
      "X_s": 7469,
      "vo": 7470,
      "train_acc": 7471,
      "features_3": 7472,
      "nomin": 7473,
      "_produc": 7474,
      "language": 7475,
      "amoun": 7476,
      "_var1325": 7477,
      "train_label": 7478,
      "test_df_8": 7479,
      "df_30": 7480,
      "parse_dates": 7481,
      "threshold_": 7482,
      "Are": 7483,
      "module": 7484,
      "_var1324": 7485,
      "processed_": 7486,
      "_gaussian": 7487,
      "diagno": 7488,
      "credit": 7489,
      "upper_bound": 7490,
      "mit": 7491,
      "_var1320": 7492,
      "prior": 7493,
      "ation_": 7494,
      "ends": 7495,
      "_var1330": 7496,
      "_var1328": 7497,
      "_var1329": 7498,
      "ill": 7499,
      "Convolution": 7500,
      "average_precision": 7501,
      "_svr": 7502,
      "iou": 7503,
      "offline": 7504,
      "school": 7505,
      "Th": 7506,
      "b1": 7507,
      "c_3": 7508,
      "mainder": 7509,
      "_var1321": 7510,
      "input_size": 7511,
      "text_5": 7512,
      "lstm_model": 7513,
      "Manipulated_drowsy": 7514,
      "ANN": 7515,
      "GTH": 7516,
      "ject": 7517,
      "train_accuracy": 7518,
      "df_29": 7519,
      "word_to_": 7520,
      "vid_": 7521,
      "Model_": 7522,
      "layer_1": 7523,
      "dayof": 7524,
      "cnt_": 7525,
      "LENGTH": 7526,
      "build_model": 7527,
      "'))": 7528,
      "y3": 7529,
      "plt_": 7530,
      "_cl": 7531,
      "_classi": 7532,
      "rfec": 7533,
      "_subset": 7534,
      "_words_0": 7535,
      "train_Y": 7536,
      "_stopwords": 7537,
      "test_Y": 7538,
      "lr_3": 7539,
      "_var1326": 7540,
      "results_3": 7541,
      "rmse_1": 7542,
      "LassoCV": 7543,
      "colors_0": 7544,
      "avelet_": 7545,
      "grad_": 7546,
      "test_data_3": 7547,
      "'].": 7548,
      "model_15": 7549,
      "corr_0": 7550,
      "boosting": 7551,
      "numeric_cols": 7552,
      "_dataset_0": 7553,
      "filtered_": 7554,
      "email": 7555,
      "cla": 7556,
      "r_squar": 7557,
      "instance": 7558,
      "ults": 7559,
      "out_1": 7560,
      "_var1336": 7561,
      "lags": 7562,
      "reg_alpha": 7563,
      "_var1331": 7564,
      "inflation": 7565,
      "Total": 7566,
      "c1": 7567,
      "d2": 7568,
      "activ": 7569,
      "_var1332": 7570,
      "optimizer_0": 7571,
      "rawing": 7572,
      "JP": 7573,
      "_cmap": 7574,
      "df_concat": 7575,
      "X_test_full": 7576,
      "transformer": 7577,
      "891": 7578,
      "eeg": 7579,
      "_points": 7580,
      "Churn": 7581,
      "rf_val_mae": 7582,
      "pay": 7583,
      "s1": 7584,
      "line_0": 7585,
      "_var1335": 7586,
      "gensim": 7587,
      "rent_": 7588,
      "lemmatizer": 7589,
      "CategoricalCrossentropy": 7590,
      "z_1": 7591,
      "logspace": 7592,
      "_func11": 7593,
      "_var1334": 7594,
      "row_3": 7595,
      "_prepared": 7596,
      "_pickle": 7597,
      "fm": 7598,
      "prices": 7599,
      "X_train_s": 7600,
      "test_X_0": 7601,
      "y_preds": 7602,
      "best_alpha": 7603,
      "titanic_df_2": 7604,
      "final_df": 7605,
      "all_data_0": 7606,
      "_percentage_error": 7607,
      "_random": 7608,
      "gp": 7609,
      "ars": 7610,
      "ali": 7611,
      "_patch": 7612,
      "_var1333": 7613,
      "Confirmed": 7614,
      "target_1": 7615,
      "_over": 7616,
      "dataframe_0": 7617,
      "keyp": 7618,
      "legend_": 7619,
      "xgb_model_0": 7620,
      "20000": 7621,
      "losse": 7622,
      "50000": 7623,
      "levels": 7624,
      "Transpose": 7625,
      "bb": 7626,
      "lgr": 7627,
      "STOP": 7628,
      "le_1": 7629,
      "med_0": 7630,
      "_country": 7631,
      "_var1340": 7632,
      "_var1343": 7633,
      "_var1344": 7634,
      "data_18": 7635,
      "8_0": 7636,
      "GS": 7637,
      "X1_0": 7638,
      "statist": 7639,
      "dataset_13": 7640,
      "_var1347": 7641,
      "X_resampled": 7642,
      "grid_search_2": 7643,
      "val_mae_0": 7644,
      "_mse": 7645,
      "buffer": 7646,
      "dtrain": 7647,
      "sker": 7648,
      "ceil": 7649,
      "_var1341": 7650,
      "end_date": 7651,
      "visualize": 7652,
      "cs": 7653,
      "kur": 7654,
      "label_4": 7655,
      "img_6": 7656,
      "dataset_16": 7657,
      "spe": 7658,
      "all_data_4": 7659,
      "segment_": 7660,
      "betas": 7661,
      "Ytest": 7662,
      "_raw": 7663,
      "_ve": 7664,
      "data_c": 7665,
      "s_14": 7666,
      "_var1342": 7667,
      "BatchNorm": 7668,
      "04": 7669,
      "col_5": 7670,
      "_fatalities": 7671,
      "y_test_7": 7672,
      "_cm": 7673,
      "_store": 7674,
      "title_text": 7675,
      "rf_classifier": 7676,
      "_var1337": 7677,
      "_var1339": 7678,
      "_var1350": 7679,
      "sgd_0": 7680,
      "ground": 7681,
      "abc": 7682,
      "_var1351": 7683,
      "ficient": 7684,
      "clone": 7685,
      "flags": 7686,
      "EY": 7687,
      "_vot": 7688,
      "pped_": 7689,
      "fig_8": 7690,
      "_var1348": 7691,
      "timedelta": 7692,
      "X_Train": 7693,
      "1000000": 7694,
      "passenger": 7695,
      "churn_data": 7696,
      "152": 7697,
      "opt_": 7698,
      "fft_": 7699,
      "var_name": 7700,
      "fit_on": 7701,
      "child": 7702,
      "lookup": 7703,
      "cust": 7704,
      "preds_2": 7705,
      "_cr": 7706,
      "ratio_": 7707,
      "melt": 7708,
      "iinfo": 7709,
      "models_1": 7710,
      "from_tensor": 7711,
      "prep": 7712,
      "log10": 7713,
      "_var1349": 7714,
      "_var1357": 7715,
      "classification_rep": 7716,
      "dent": 7717,
      "kmeans_0": 7718,
      "keypoint": 7719,
      "'])]": 7720,
      "ball": 7721,
      "dot_data": 7722,
      "_replace": 7723,
      "all_0": 7724,
      "_var1338": 7725,
      "_var1346": 7726,
      "_var1358": 7727,
      "_var1359": 7728,
      "batch_size_1": 7729,
      "grid_result": 7730,
      "_prev": 7731,
      "_number": 7732,
      "notebook_": 7733,
      "vertical": 7734,
      "l1_ratio": 7735,
      "Mis": 7736,
      "esian": 7737,
      "_fe": 7738,
      "test_error": 7739,
      "best_0": 7740,
      "_var1352": 7741,
      "_var1353": 7742,
      "_var1354": 7743,
      "0005": 7744,
      "_oof": 7745,
      "hidden_layer_sizes": 7746,
      "andardize": 7747,
      "sampling": 7748,
      "df_total": 7749,
      "ity_1": 7750,
      "kera": 7751,
      "_var1345": 7752,
      "_var1356": 7753,
      "num_epochs": 7754,
      "_svm_0": 7755,
      "_parallel": 7756,
      "guess_ages": 7757,
      "skf": 7758,
      "log_0": 7759,
      "_var1365": 7760,
      "x_test_3": 7761,
      "learning_rate_0": 7762,
      "special": 7763,
      "NO": 7764,
      "y_cv": 7765,
      "covered": 7766,
      "svc_": 7767,
      "rf_clf": 7768,
      "_var1355": 7769,
      "_var1361": 7770,
      "idxmax": 7771,
      "Exception": 7772,
      "from_tensor_slices": 7773,
      "2048": 7774,
      "_var1360": 7775,
      "_var1368": 7776,
      "validate": 7777,
      "reviews": 7778,
      "right_index": 7779,
      "2_5": 7780,
      "_r2": 7781,
      "colab": 7782,
      "memb": 7783,
      "_var1362": 7784,
      "CHF": 7785,
      "predicted_0": 7786,
      "_probabilities": 7787,
      "tokenizer_0": 7788,
      "simplefilter": 7789,
      "UC": 7790,
      "gini": 7791,
      "vision": 7792,
      "adam": 7793,
      "sc_0": 7794,
      "fill_": 7795,
      "emotion": 7796,
      "ie": 7797,
      "pred_train": 7798,
      "test_images_0": 7799,
      "_var1363": 7800,
      "mean_absolute_percentage_error": 7801,
      "_id_0": 7802,
      "bert_": 7803,
      "species": 7804,
      "String": 7805,
      "variance_inflation": 7806,
      "fit_on_texts": 7807,
      "variance_inflation_factor": 7808,
      "Vector": 7809,
      "fore": 7810,
      "df_w": 7811,
      "train_x_0": 7812,
      "X_test_7": 7813,
      "clf_7": 7814,
      "_var1364": 7815,
      "_var1369": 7816,
      "_transaction": 7817,
      "titanic_df_6": 7818,
      "cnn_model": 7819,
      "false_positive_rate": 7820,
      "_regressor_0": 7821,
      "visualizer": 7822,
      "cons": 7823,
      "trn": 7824,
      "val_data": 7825,
      "life": 7826,
      "test_idx": 7827,
      "cat_col": 7828,
      "corrcoef": 7829,
      "LR_": 7830,
      "rug": 7831,
      "specificity": 7832,
      "From": 7833,
      "cell": 7834,
      "arizer": 7835,
      "leaves": 7836,
      "test_loader": 7837,
      "gb_0": 7838,
      "_var1366": 7839,
      "combine_1": 7840,
      "english": 7841,
      "All": 7842,
      "ong": 7843,
      "d_6": 7844,
      "iso": 7845,
      "accuracy_4": 7846,
      "min_df": 7847,
      "_var1367": 7848,
      "floor": 7849,
      "tc": 7850,
      "tst": 7851,
      "urch": 7852,
      "features_to_": 7853,
      "direction": 7854,
      "embarked": 7855,
      "_to_remove": 7856,
      "A_0": 7857,
      "exten": 7858,
      "_scores_1": 7859,
      "embedding_dim": 7860,
      "polynomial": 7861,
      "endswith": 7862,
      "DMatrix": 7863,
      "RNN": 7864,
      "female": 7865,
      "uisine": 7866,
      "_test_5": 7867,
      "df_train_9": 7868,
      "SS": 7869,
      "_out": 7870,
      "wc": 7871,
      "seed_": 7872,
      "colormap": 7873,
      "_var1370": 7874,
      "spine": 7875,
      "recall_1": 7876,
      "_pca_0": 7877,
      "min_max": 7878,
      "_positives": 7879,
      "zeros_": 7880,
      "bp": 7881,
      "pub": 7882,
      "_twee": 7883,
      "sets": 7884,
      "s_in": 7885,
      "252": 7886,
      "_var1379": 7887,
      "_Score": 7888,
      "_pos_": 7889,
      "y_train_pred_0": 7890,
      "band": 7891,
      "demo": 7892,
      "get_params": 7893,
      "x_train_4": 7894,
      "self_32": 7895,
      "attack": 7896,
      "yi": 7897,
      "impro": 7898,
      "ential": 7899,
      "_50": 7900,
      "image_6": 7901,
      "_da": 7902,
      "_var1371": 7903,
      "train_data_5": 7904,
      "adjusted_": 7905,
      "centers": 7906,
      "complete": 7907,
      "sf": 7908,
      "y_train_7": 7909,
      "_var1372": 7910,
      "_var1373": 7911,
      "_var1378": 7912,
      "oft": 7913,
      "350": 7914,
      "rng": 7915,
      "list_": 7916,
      "feature_2": 7917,
      "x_test_": 7918,
      "housing_0": 7919,
      "Area": 7920,
      "data3": 7921,
      "test_12": 7922,
      "102": 7923,
      "_var1376": 7924,
      "start_0": 7925,
      "init_notebook_": 7926,
      "_percent": 7927,
      "projection": 7928,
      "background_color": 7929,
      "COLOR_BGR2RGB": 7930,
      "init_notebook_mode": 7931,
      "7_0": 7932,
      "_vis": 7933,
      "age_0": 7934,
      "_var1380": 7935,
      "uests": 7936,
      "cover": 7937,
      "uto": 7938,
      "Data_1": 7939,
      "_var1377": 7940,
      "combined_0": 7941,
      "true_positive_rate": 7942,
      "second_": 7943,
      "object_cols": 7944,
      "val_df": 7945,
      "exec": 7946,
      "_var1394": 7947,
      "_period": 7948,
      "face_": 7949,
      "TfidfTransformer": 7950,
      "WID": 7951,
      "Z_0": 7952,
      "truth": 7953,
      "_var1375": 7954,
      "feature_cols": 7955,
      "X_batch": 7956,
      "fontdict": 7957,
      "precision_1": 7958,
      "svm_model": 7959,
      "grid_search_": 7960,
      "make_classification": 7961,
      "self_30": 7962,
      "hicle": 7963,
      "expected_": 7964,
      "dp": 7965,
      "m_3": 7966,
      "color_": 7967,
      "_var1385": 7968,
      "_var1393": 7969,
      "auc_score": 7970,
      "roc_auc_0": 7971,
      "self_31": 7972,
      "_rfe": 7973,
      "img_rows": 7974,
      "_var1400": 7975,
      "img_cols": 7976,
      "dtc_0": 7977,
      "_var1392": 7978,
      "tree_reg": 7979,
      "result_3": 7980,
      "_cleaned": 7981,
      "_mean_0": 7982,
      "Graph": 7983,
      "WIDTH": 7984,
      "hub": 7985,
      "sage": 7986,
      "data_df": 7987,
      "tition": 7988,
      "set_yticks": 7989,
      "ressed_": 7990,
      "y_pred_9": 7991,
      "_var1391": 7992,
      "_var1398": 7993,
      "_var1399": 7994,
      "_init": 7995,
      "experiment_": 7996,
      "ticket_": 7997,
      "coordin": 7998,
      "NumberOf": 7999,
      "Final": 8000,
      "PE": 8001,
      "n_folds": 8002,
      "xmin": 8003,
      "_var1388": 8004,
      "depen": 8005,
      "daily_": 8006,
      "705": 8007,
      "training_0": 8008,
      "AdaBoostRegressor": 8009,
      "second": 8010,
      "background_gradient": 8011,
      "detach": 8012,
      "Y1": 8013,
      "tt_": 8014,
      "_ter": 8015,
      "lan": 8016,
      "data_test_0": 8017,
      "y_res": 8018,
      "_var1374": 8019,
      "_var1383": 8020,
      "_var1387": 8021,
      "_var1397": 8022,
      "cols_with_missing": 8023,
      "r2_1": 8024,
      "submit_": 8025,
      "b_3": 8026,
      "axs_1": 8027,
      "_cross": 8028,
      "_var1381": 8029,
      "_var1386": 8030,
      "_var1395": 8031,
      "_var1403": 8032,
      "_fold_0": 8033,
      "_sklearn": 8034,
      "PP": 8035,
      "treino": 8036,
      "trunc": 8037,
      "shear": 8038,
      "adv": 8039,
      "named_": 8040,
      "_var1384": 8041,
      "_var1390": 8042,
      "_var1396": 8043,
      "_var1401": 8044,
      "cases": 8045,
      "x_21": 8046,
      "aggfunc": 8047,
      "highest": 8048,
      "_duration": 8049,
      "ticke": 8050,
      "chunk": 8051,
      "Ite": 8052,
      "mpimg": 8053,
      "reg_1": 8054,
      "titanic_df_0": 8055,
      "zero_grad": 8056,
      "Layout": 8057,
      "measure": 8058,
      "N_": 8059,
      "_df_6": 8060,
      "ifor": 8061,
      "arity": 8062,
      "_pix": 8063,
      "sive": 8064,
      "train_images_0": 8065,
      "_var1389": 8066,
      "_var1402": 8067,
      "_var1407": 8068,
      "part": 8069,
      "zeros_like": 8070,
      "_var1410": 8071,
      "abspath": 8072,
      "column_2": 8073,
      "Test_0": 8074,
      "attention_mask": 8075,
      "contourf": 8076,
      "_classif": 8077,
      "ered": 8078,
      "fname": 8079,
      "machine": 8080,
      "t0": 8081,
      "_sy": 8082,
      "eath": 8083,
      "subplot_": 8084,
      "_var1406": 8085,
      "word_2": 8086,
      "classifier_2": 8087,
      "conting": 8088,
      "analyzer": 8089,
      "_days": 8090,
      "ero": 8091,
      "prev": 8092,
      "color_0": 8093,
      "_var1382": 8094,
      "counts_0": 8095,
      "X_b": 8096,
      "_base": 8097,
      "src": 8098,
      "())]": 8099,
      "_var1413": 8100,
      "X_train_8": 8101,
      "acc_score": 8102,
      "_rfc": 8103,
      "convolution": 8104,
      "acc_knn": 8105,
      "reg_lambda": 8106,
      "element": 8107,
      "_parameter": 8108,
      "TSNE": 8109,
      "Prophet": 8110,
      "restaurant_": 8111,
      "C_": 8112,
      "X_13": 8113,
      "ink": 8114,
      "_var1414": 8115,
      "enc_0": 8116,
      "ax_": 8117,
      "end_time": 8118,
      "lr_model_0": 8119,
      "280": 8120,
      "_titles": 8121,
      "_tree_0": 8122,
      "pearsonr": 8123,
      "imdb": 8124,
      "t_6": 8125,
      "ax_11": 8126,
      "_var1409": 8127,
      "best_acc": 8128,
      "X_train_scaled_0": 8129,
      "AUD": 8130,
      "GCS": 8131,
      "gin": 8132,
      "s_df_1": 8133,
      "test_ds": 8134,
      "unique_": 8135,
      "i_16": 8136,
      "_off": 8137,
      "naive": 8138,
      "expected": 8139,
      "contingenc": 8140,
      "ard_": 8141,
      "ply": 8142,
      "_var1412": 8143,
      "riv": 8144,
      "ract": 8145,
      "y_max": 8146,
      "_var1404": 8147,
      "_var1405": 8148,
      "data_19": 8149,
      "x_22": 8150,
      "origin": 8151,
      "_files": 8152,
      "_dict_2": 8153,
      "Ker": 8154,
      "y_10": 8155,
      "atom": 8156,
      "009": 8157,
      "prediction_": 8158,
      "test_data_path": 8159,
      "crime": 8160,
      "Y_prediction": 8161,
      "_var1411": 8162,
      "column_names": 8163,
      "Vec": 8164,
      "_var1417": 8165,
      "test_mean": 8166,
      "ifar": 8167,
      "luster": 8168,
      "Concat": 8169,
      "rf_random": 8170,
      "Kernel": 8171,
      "g1": 8172,
      "_var1425": 8173,
      "ax2_0": 8174,
      "testY": 8175,
      "set_tick": 8176,
      "_func12": 8177,
      "_var1408": 8178,
      "feature_range": 8179,
      "x_max": 8180,
      "[((": 8181,
      "Binarizer": 8182,
      "ResNet50": 8183,
      "hash": 8184,
      "_var1415": 8185,
      "test_13": 8186,
      "board": 8187,
      "132": 8188,
      "test_data_4": 8189,
      "torchvision": 8190,
      "Resh": 8191,
      "false_": 8192,
      "_trial": 8193,
      "VALIDATION": 8194,
      "GRA": 8195,
      "X_15": 8196,
      "_var1416": 8197,
      "_strategy": 8198,
      "RandomOver": 8199,
      "epochs_": 8200,
      "dataset_22": 8201,
      "oof_train": 8202,
      "x_val_0": 8203,
      "RandomOverSampler": 8204,
      "4000": 8205,
      "Group": 8206,
      "ytrain_0": 8207,
      "plex": 8208,
      "_test_pred": 8209,
      "_var1423": 8210,
      "anim": 8211,
      "_syn": 8212,
      "ged": 8213,
      "row_4": 8214,
      "corpu": 8215,
      "hole": 8216,
      "model_16": 8217,
      "argmin": 8218,
      "_predictions_1": 8219,
      "seq_length": 8220,
      "_processed": 8221,
      "3D": 8222,
      "X3": 8223,
      "classifi": 8224,
      "v1": 8225,
      "st_0": 8226,
      "coh": 8227,
      "_var1418": 8228,
      "_call": 8229,
      "s_15": 8230,
      "limit_": 8231,
      "y_validation": 8232,
      "_tfidf_": 8233,
      "study": 8234,
      "a1": 8235,
      "pli": 8236,
      "_var1424": 8237,
      "test_target": 8238,
      "best_feature": 8239,
      "best_threshold": 8240,
      "_var1422": 8241,
      "sample_0": 8242,
      "_correlation": 8243,
      "MLA": 8244,
      "RidgeCV": 8245,
      "ixed": 8246,
      "Under": 8247,
      "major_": 8248,
      "Reshape": 8249,
      "fl": 8250,
      "types": 8251,
      "yel": 8252,
      "ind_": 8253,
      "_var1419": 8254,
      "msno": 8255,
      "MBED": 8256,
      "LearningRate": 8257,
      "ds_2": 8258,
      "_pattern": 8259,
      "distribute": 8260,
      "686": 8261,
      "y_pred_lr": 8262,
      "Add": 8263,
      "ibrate": 8264,
      "rounded": 8265,
      "bureau": 8266,
      "happ": 8267,
      "_var1420": 8268,
      "test_y_0": 8269,
      "y_real": 8270,
      "dataset_17": 8271,
      "_var1421": 8272,
      "cm_": 8273,
      "progres": 8274,
      "objs": 8275,
      "TPR": 8276,
      "_shap": 8277,
      "probplot": 8278,
      "Convolution2D": 8279,
      "X_temp": 8280,
      "set_yticklabels": 8281,
      "model_xgb": 8282,
      "partial": 8283,
      "text_6": 8284,
      "elements": 8285,
      "gmm": 8286,
      "plots": 8287,
      "locations": 8288,
      "writer": 8289,
      "Rep": 8290,
      "thi": 8291,
      "x_tr": 8292,
      "num_parallel": 8293,
      "processed": 8294,
      "_be": 8295,
      "symbol": 8296,
      "training_data_": 8297,
      "essay_": 8298,
      "left_index": 8299,
      "_couisine": 8300,
      "augmented": 8301,
      "STOPWORDS": 8302,
      "restaurant_with": 8303,
      "_couisine_style": 8304,
      "BM": 8305,
      "C_1": 8306,
      "X_data": 8307,
      "_not_": 8308,
      "qq": 8309,
      "clf_8": 8310,
      "epoch_0": 8311,
      "X_set": 8312,
      "bar_width": 8313,
      "plot_importance": 8314,
      "384": 8315,
      "Train_ProviderWithPatientDetails": 8316,
      "threshold_0": 8317,
      "sentence_0": 8318,
      "orientation": 8319,
      "4_1": 8320,
      "Auto": 8321,
      "Cur": 8322,
      "[[": 8323,
      "tü": 8324,
      "modi": 8325,
      "_var1426": 8326,
      "max_words": 8327,
      "sub_1": 8328,
      "_var1428": 8329,
      "path_1": 8330,
      "average_": 8331,
      "input_shape_0": 8332,
      "_space": 8333,
      "division": 8334,
      "augmentation": 8335,
      "X2_0": 8336,
      "colname": 8337,
      "values_0": 8338,
      "train_x_": 8339,
      "_crossentropy": 8340,
      "_var1430": 8341,
      "_var1431": 8342,
      "ind_0": 8343,
      "binary_": 8344,
      "grid_search_1": 8345,
      "zipfile": 8346,
      "vectorizer_0": 8347,
      "Names": 8348,
      "ING_FILE": 8349,
      "Scheduler": 8350,
      "Ytrain": 8351,
      "fraction": 8352,
      "fit_0": 8353,
      "_var1429": 8354,
      "stemmer": 8355,
      "Posi": 8356,
      "S_0": 8357,
      "f_3": 8358,
      "data_test_1": 8359,
      "_data_6": 8360,
      "2500": 8361,
      "131": 8362,
      "_var1432": 8363,
      "_var1433": 8364,
      "use_bias": 8365,
      "all_data_na": 8366,
      "fit_intercept": 8367,
      "acc_log": 8368,
      "my_cols": 8369,
      "coeff_df": 8370,
      "Op": 8371,
      "_a": 8372,
      "b2": 8373,
      "h2": 8374,
      "os_0": 8375,
      "meg": 8376,
      "2016": 8377,
      "_var1438": 8378,
      "_var1440": 8379,
      "df_33": 8380,
      "_params_": 8381,
      "nan_age": 8382,
      "_binary": 8383,
      "NAME": 8384,
      "_tsne": 8385,
      "VGG16": 8386,
      "SparseCategoricalCrossentropy": 8387,
      "OT": 8388,
      "dataloader": 8389,
      "reen": 8390,
      "plu": 8391,
      "key_1": 8392,
      "metrics_0": 8393,
      "best_features": 8394,
      "_var1435": 8395,
      "_var1439": 8396,
      "_counts_0": 8397,
      "pointplot": 8398,
      "min_lr": 8399,
      "runs": 8400,
      "Guests": 8401,
      "dm_": 8402,
      "sampl": 8403,
      "num_samples": 8404,
      "feature_dataframe": 8405,
      "_var1441": 8406,
      "_var1427": 8407,
      "640": 8408,
      "optimize": 8409,
      "weighted_": 8410,
      "tuned_": 8411,
      "_sqft": 8412,
      "rf_val_predictions": 8413,
      "_cardinal": 8414,
      "convolutional": 8415,
      "_learning": 8416,
      "bed": 8417,
      "c2": 8418,
      "cc_": 8419,
      "acity": 8420,
      "dataset_31": 8421,
      "axes_4": 8422,
      "self_36": 8423,
      "fit_predict": 8424,
      "Concatenate": 8425,
      "Month": 8426,
      "N_0": 8427,
      "y_scores": 8428,
      "requi": 8429,
      "as_matrix": 8430,
      "aux": 8431,
      "rowth": 8432,
      "_var1437": 8433,
      "_var1442": 8434,
      "_var1443": 8435,
      "_var1449": 8436,
      "_var1450": 8437,
      "client": 8438,
      "Or": 8439,
      "y_c": 8440,
      "cope": 8441,
      "dataFrame": 8442,
      "uen": 8443,
      "iters": 8444,
      "_var1434": 8445,
      "_var1436": 8446,
      "_var1448": 8447,
      "status": 8448,
      "combine_3": 8449,
      "X_val_1": 8450,
      "60000": 8451,
      "_Y": 8452,
      "fast": 8453,
      "ymin": 8454,
      "df_main": 8455,
      "xture": 8456,
      "_var1445": 8457,
      "spect": 8458,
      "273": 8459,
      "456": 8460,
      "y_table": 8461,
      "ant_analysis": 8462,
      "discriminant_analysis": 8463,
      "v_2": 8464,
      "y_pre": 8465,
      "202": 8466,
      "scores_": 8467,
      "gcf": 8468,
      "shutil": 8469,
      "kew": 8470,
      "cat_0": 8471,
      "_var1446": 8472,
      "tokenized": 8473,
      "self_33": 8474,
      "conf_matrix_0": 8475,
      "early_stop": 8476,
      "defaultdict": 8477,
      "Key": 8478,
      "suggest_": 8479,
      "trend": 8480,
      "vocabulary_": 8481,
      "_level": 8482,
      "num_1": 8483,
      "acc_train": 8484,
      "_var1444": 8485,
      "optimal_": 8486,
      "model_name_0": 8487,
      "test_index_0": 8488,
      "file_1": 8489,
      "features_5": 8490,
      "_var1447": 8491,
      "observ": 8492,
      "player_": 8493,
      "self_34": 8494,
      "Test_ProviderWithPatientDetails": 8495,
      "Format": 8496,
      "ler": 8497,
      "_port": 8498,
      "adult_": 8499,
      "df_data": 8500,
      "_dt_0": 8501,
      "version": 8502,
      "params_2": 8503,
      "before": 8504,
      "INP": 8505,
      "_DATA": 8506,
      "segments": 8507,
      "optuna": 8508,
      "USD": 8509,
      "BA": 8510,
      "ls_": 8511,
      "nx": 8512,
      "df_with": 8513,
      "set_y": 8514,
      "step_3": 8515,
      "Binary": 8516,
      "X_pca": 8517,
      "col_6": 8518,
      "id2": 8519,
      "train_data_6": 8520,
      "fpr_1": 8521,
      "intermedi": 8522,
      "_DF": 8523,
      "_chart": 8524,
      "PRO": 8525,
      "bg": 8526,
      "alth": 8527,
      "_var1453": 8528,
      "df_32": 8529,
      "222": 8530,
      "avai": 8531,
      "mae_1": 8532,
      "ucces": 8533,
      "initializers": 8534,
      "_dict_3": 8535,
      "mutual": 8536,
      "uper": 8537,
      "row_index": 8538,
      "_var1451": 8539,
      "_var1454": 8540,
      "folder_path": 8541,
      "recurrent_": 8542,
      "Repeat": 8543,
      "model_path": 8544,
      "mat_data": 8545,
      "pretrained_": 8546,
      "maker": 8547,
      "titanic_train": 8548,
      "x_axis": 8549,
      "dimension": 8550,
      "random_search_0": 8551,
      "datagen_0": 8552,
      "rf_model_on_full_data": 8553,
      "pred_3": 8554,
      "array_0": 8555,
      "_var1459": 8556,
      "_var1460": 8557,
      "dict_0": 8558,
      "conv1": 8559,
      "accuracy_list": 8560,
      "my_imputer": 8561,
      "save_fig": 8562,
      "_similar": 8563,
      "dtr": 8564,
      "slope": 8565,
      "relev": 8566,
      "remainder": 8567,
      "glove": 8568,
      "201": 8569,
      "y_col": 8570,
      "_var1452": 8571,
      "_var1456": 8572,
      "_var1463": 8573,
      "all_data_2": 8574,
      "_DIM": 8575,
      "_ohe": 8576,
      "HEIGHT": 8577,
      "SF": 8578,
      "_val_1": 8579,
      "lent": 8580,
      "nn_model": 8581,
      "prediction_2": 8582,
      "_var1457": 8583,
      "_var1466": 8584,
      "boxes": 8585,
      "out_2": 8586,
      "rooms": 8587,
      "lemma": 8588,
      "dl": 8589,
      "zscore": 8590,
      "pred_y": 8591,
      "y_test_8": 8592,
      "list_of": 8593,
      "rf_pred": 8594,
      "_var1462": 8595,
      "_var1467": 8596,
      "_var1471": 8597,
      "pathlib": 8598,
      "_position": 8599,
      "EPS": 8600,
      "incip": 8601,
      "BS": 8602,
      "X_14": 8603,
      "stu": 8604,
      "val_1": 8605,
      "features_list": 8606,
      "_var1455": 8607,
      "_var1458": 8608,
      "_var1468": 8609,
      "linear_regression": 8610,
      "knn_3": 8611,
      "_params_0": 8612,
      "x_23": 8613,
      "LabelBinarizer": 8614,
      "temp_1": 8615,
      "out_file": 8616,
      "from_logits": 8617,
      "_history": 8618,
      "card": 8619,
      "tan": 8620,
      "amily": 8621,
      "diver": 8622,
      "_var1461": 8623,
      "_var1472": 8624,
      "boxco": 8625,
      "temp_df": 8626,
      "boost_": 8627,
      "kwarg": 8628,
      "inerti": 8629,
      "draw_": 8630,
      "women": 8631,
      "CM": 8632,
      "_row": 8633,
      "ao": 8634,
      "cen": 8635,
      "amplit": 8636,
      "eda": 8637,
      "142": 8638,
      "reg_2": 8639,
      "_var1464": 8640,
      "_var1465": 8641,
      "_var1473": 8642,
      "company": 8643,
      "results_4": 8644,
      "importances_0": 8645,
      "Proces": 8646,
      "j_5": 8647,
      "xmax": 8648,
      "_v2": 8649,
      "model_s": 8650,
      "train_path": 8651,
      "olver": 8652,
      "title_1": 8653,
      "_var1474": 8654,
      "alpha_": 8655,
      "lin_reg_0": 8656,
      "data_25": 8657,
      "sagemaker": 8658,
      "cir": 8659,
      "p_3": 8660,
      "se_": 8661,
      "008": 8662,
      "history_3": 8663,
      "no_grad": 8664,
      "mse_2": 8665,
      "layer_2": 8666,
      "tpr_1": 8667,
      "named_steps": 8668,
      "Day": 8669,
      "logs": 8670,
      "clf2": 8671,
      "score_4": 8672,
      "_var1476": 8673,
      "y_val_1": 8674,
      "perm": 8675,
      "Ticket": 8676,
      "L2": 8677,
      "_importance": 8678,
      "cwd": 8679,
      "vals": 8680,
      "y_pred3": 8681,
      "2018": 8682,
      "2023": 8683,
      "_var1469": 8684,
      "_var1470": 8685,
      "_var1475": 8686,
      "_var1477": 8687,
      "knn_classifier": 8688,
      "height_0": 8689,
      "Train_0": 8690,
      "radius": 8691,
      "titanic_df_7": 8692,
      "EMBED": 8693,
      "X_scaler": 8694,
      "cifar": 8695,
      "d3": 8696,
      "mas": 8697,
      "train_16": 8698,
      "from_dict": 8699,
      "return_counts": 8700,
      "row_5": 8701,
      "X_all": 8702,
      "tags": 8703,
      "Y_pred_1": 8704,
      "users": 8705,
      "ERS": 8706,
      "tabulate": 8707,
      "hyperparameters": 8708,
      "FF": 8709,
      "Y_true": 8710,
      "_var1500": 8711,
      "_split_": 8712,
      "ax_12": 8713,
      "bad_": 8714,
      "_var1479": 8715,
      "_var1482": 8716,
      "latitude": 8717,
      "StratifiedShuffleSplit": 8718,
      "_kappa": 8719,
      "GL": 8720,
      "Weigh": 8721,
      "ax4": 8722,
      "utation": 8723,
      "heart": 8724,
      "_var1478": 8725,
      "_var1483": 8726,
      "_var1489": 8727,
      "_curr": 8728,
      "masks": 8729,
      "multiple": 8730,
      "_cardinality_": 8731,
      "PO": 8732,
      "_var1514": 8733,
      "adrat": 8734,
      "ulary": 8735,
      "_var1495": 8736,
      "_bn": 8737,
      "dataset_20": 8738,
      "predicted_value": 8739,
      "_process": 8740,
      "gaussian_0": 8741,
      "previous_": 8742,
      "_one": 8743,
      "tx": 8744,
      "showlegend": 8745,
      "genres": 8746,
      "485": 8747,
      "output_2": 8748,
      "support_": 8749,
      "likeli": 8750,
      "LearningRateScheduler": 8751,
      "df3_0": 8752,
      "ada_": 8753,
      "_val_loss": 8754,
      "svr_": 8755,
      "2019": 8756,
      "scan": 8757,
      "_dummy": 8758,
      "_var1481": 8759,
      "_var1490": 8760,
      "_var1494": 8761,
      "df_31": 8762,
      "X_random_": 8763,
      "num_col": 8764,
      "333": 8765,
      "seg_id": 8766,
      "Ev": 8767,
      "gnb_0": 8768,
      "lob": 8769,
      "_var1513": 8770,
      "fig_9": 8771,
      "_go": 8772,
      "_var1486": 8773,
      "_var1493": 8774,
      "_var1498": 8775,
      "_var1499": 8776,
      "idx_3": 8777,
      "expon": 8778,
      "all_data_5": 8779,
      "df1_2": 8780,
      "thresholds_0": 8781,
      "component": 8782,
      "xaxis_title": 8783,
      "T_0": 8784,
      "y_proba": 8785,
      "uess": 8786,
      "_win": 8787,
      "model_performance": 8788,
      "test_id": 8789,
      "opacity": 8790,
      "athlet": 8791,
      "_var1480": 8792,
      "_var1484": 8793,
      "_var1485": 8794,
      "_var1487": 8795,
      "_var1488": 8796,
      "_var1492": 8797,
      "_var1507": 8798,
      "cm_4": 8799,
      "plot_roc_curve": 8800,
      "amen": 8801,
      "series_0": 8802,
      "skewness": 8803,
      "_me": 8804,
      "omer": 8805,
      "_var1519": 8806,
      "val_pred": 8807,
      "active": 8808,
      "tect": 8809,
      "_score_2": 8810,
      "_var1491": 8811,
      "_var1496": 8812,
      "_var1503": 8813,
      "_var1505": 8814,
      "_var1508": 8815,
      "fill_value": 8816,
      "ATUR": 8817,
      "_weights_": 8818,
      "labeled_": 8819,
      "CatBoostRegressor": 8820,
      "w_2": 8821,
      "_var1512": 8822,
      "_var1520": 8823,
      "_var1516": 8824,
      "train_targets": 8825,
      "2015": 8826,
      "_var1501": 8827,
      "_var1506": 8828,
      "feat_map": 8829,
      "Results": 8830,
      "yaxis_title": 8831,
      "NUM_": 8832,
      "explained_variance_": 8833,
      "rf_model_on_full_data_0": 8834,
      "Qual": 8835,
      "pic": 8836,
      "rus": 8837,
      "_var1504": 8838,
      "_var1522": 8839,
      "_prefix": 8840,
      "Import": 8841,
      "result_df": 8842,
      "_detec": 8843,
      "())}": 8844,
      "augmented_": 8845,
      "urchase": 8846,
      "GRAY": 8847,
      "TION": 8848,
      "dd": 8849,
      "_var1515": 8850,
      "set_major_": 8851,
      "label_5": 8852,
      "s_df_2": 8853,
      "titles": 8854,
      "cv_1": 8855,
      "img_width": 8856,
      "_var1497": 8857,
      "_var1502": 8858,
      "_var1521": 8859,
      "cv_results_0": 8860,
      "offset": 8861,
      "Array": 8862,
      "_vgg": 8863,
      "eld_": 8864,
      "_var1518": 8865,
      "_var1523": 8866,
      "X_train2": 8867,
      "activations": 8868,
      "para": 8869,
      "headers": 8870,
      "_poly_0": 8871,
      "neuron": 8872,
      "bf": 8873,
      "train_predictions": 8874,
      "value_1": 8875,
      "_var1509": 8876,
      "_var1511": 8877,
      "shif": 8878,
      "download_": 8879,
      "emoj": 8880,
      "hich": 8881,
      "RowNumber": 8882,
      "dayofweek": 8883,
      "suggest_int": 8884,
      "rint": 8885,
      "copi": 8886,
      "_var1517": 8887,
      "image_7": 8888,
      "_var1527": 8889,
      "class_labels": 8890,
      "y_pred_knn": 8891,
      "SEQ": 8892,
      "state_dict": 8893,
      "coordinates": 8894,
      "Axes": 8895,
      "Cor": 8896,
      "j_6": 8897,
      "yr": 8898,
      "_var1510": 8899,
      "_var1526": 8900,
      "_3_0": 8901,
      "error_rate": 8902,
      "dir_0": 8903,
      "df_34": 8904,
      "data_21": 8905,
      "_clf_1": 8906,
      "commen": 8907,
      "docs": 8908,
      "datat": 8909,
      "colour": 8910,
      "g_3": 8911,
      "vect": 8912,
      "leep": 8913,
      "s_model": 8914,
      "class_weights": 8915,
      "ridge_model": 8916,
      "intersection": 8917,
      "my_model_0": 8918,
      "2_6": 8919,
      "RI": 8920,
      "page": 8921,
      "ert": 8922,
      "data_22": 8923,
      "c_max": 8924,
      "summary_": 8925,
      "longitude": 8926,
      "RANDOM_ST": 8927,
      "JPY_": 8928,
      "available": 8929,
      "_search": 8930,
      "dup": 8931,
      "as_0": 8932,
      "as_cmap": 8933,
      "_font_": 8934,
      "exog": 8935,
      "mask_1": 8936,
      "self_38": 8937,
      "count_nan_age": 8938,
      "survived_": 8939,
      "eather_": 8940,
      "EUR": 8941,
      "prise": 8942,
      "_func13": 8943,
      "cats": 8944,
      "_var1531": 8945,
      "_var1529": 8946,
      "cm_3": 8947,
      "results_5": 8948,
      "_CO": 8949,
      "').": 8950,
      "rule": 8951,
      "letter": 8952,
      "rbf": 8953,
      "negative_": 8954,
      "CE": 8955,
      "qda": 8956,
      "_var1525": 8957,
      "_pred_2": 8958,
      "to_replace": 8959,
      "_var1542": 8960,
      "i_17": 8961,
      "X_validation": 8962,
      "current": 8963,
      "counter_0": 8964,
      "ressure": 8965,
      "_reviews": 8966,
      "Ag": 8967,
      "_enc": 8968,
      "dictionary": 8969,
      "tm": 8970,
      "_var1524": 8971,
      "matshow": 8972,
      "auti": 8973,
      "_var1533": 8974,
      "_var1528": 8975,
      "latest": 8976,
      "336": 8977,
      "_poly_": 8978,
      "array_": 8979,
      "X_poly": 8980,
      "ki": 8981,
      "fix_": 8982,
      "_w2v": 8983,
      "trainData": 8984,
      "try_": 8985,
      "_predicted_": 8986,
      "'))]": 8987,
      "ER_": 8988,
      "template": 8989,
      "triu": 8990,
      "_tags": 8991,
      "smooth": 8992,
      "...": 8993,
      "_single": 8994,
      "_batch": 8995,
      "which": 8996,
      "acc_svc": 8997,
      "error_0": 8998,
      "img_7": 8999,
      "_var1530": 9000,
      "_var1532": 9001,
      "_var1536": 9002,
      "_var1539": 9003,
      "_var1541": 9004,
      "model_17": 9005,
      "binar": 9006,
      "filtered_data": 9007,
      "interest": 9008,
      "instances": 9009,
      "amount_": 9010,
      "_vehicle": 9011,
      "1d": 9012,
      "Fail": 9013,
      "buc": 9014,
      "envi": 9015,
      "_cut": 9016,
      "ts_2": 9017,
      "_var1535": 9018,
      "_var1538": 9019,
      "_var1540": 9020,
      "words_1": 9021,
      "f1_scores": 9022,
      "_hol": 9023,
      "gdp": 9024,
      "embarked_": 9025,
      "loaded_model": 9026,
      "cohen": 9027,
      "RANDOM_STATE": 9028,
      "Fi": 9029,
      "wv": 9030,
      "arrow": 9031,
      "stage": 9032,
      "less": 9033,
      "_var1534": 9034,
      "_var1543": 9035,
      "_var1545": 9036,
      "Covid_": 9037,
      "c_min": 9038,
      "param_grid_1": 9039,
      "lmfit_": 9040,
      "graph_objs": 9041,
      "_all_": 9042,
      "y_pred_10": 9043,
      "main_": 9044,
      "_var1544": 9045,
      "word2vec": 9046,
      "combine_2": 9047,
      "_class_1": 9048,
      "interp": 9049,
      "_bins": 9050,
      "both": 9051,
      "ExtraTreesRegressor": 9052,
      "im_0": 9053,
      "entry": 9054,
      "_var1537": 9055,
      "outputs_0": 9056,
      "predictions_4": 9057,
      "_svm_": 9058,
      "_dec": 9059,
      "_vecs": 9060,
      "_suffix": 9061,
      "embeddings_index": 9062,
      "iforni": 9063,
      "DEP": 9064,
      "Ro": 9065,
      "patter": 9066,
      "test_14": 9067,
      "mp_d": 9068,
      "score_dataset": 9069,
      "232": 9070,
      "spacy": 9071,
      "initialize": 9072,
      "patial": 9073,
      "interaction": 9074,
      "SelectFrom": 9075,
      "education": 9076,
      "SelectFromModel": 9077,
      "ger_": 9078,
      "l_2": 9079,
      "_pe": 9080,
      "side": 9081,
      "162": 9082,
      "matrix_0": 9083,
      "_var1547": 9084,
      "_var1548": 9085,
      "_var1551": 9086,
      "optimized": 9087,
      "best_loss": 9088,
      "digit_": 9089,
      "mutual_info": 9090,
      "Perc": 9091,
      "__3": 9092,
      "k_3": 9093,
      "isk": 9094,
      "_var1546": 9095,
      "_var1555": 9096,
      "995": 9097,
      "best_params_0": 9098,
      "lgbm_": 9099,
      "housing_1": 9100,
      "house_df": 9101,
      "_working": 9102,
      "r_squared": 9103,
      "Map": 9104,
      "w_": 9105,
      "xtrain_0": 9106,
      "_var1550": 9107,
      "test_path": 9108,
      "iter_": 9109,
      "__4": 9110,
      "test_labels_0": 9111,
      "y_train_8": 9112,
      "to_dict": 9113,
      "expan": 9114,
      "famil": 9115,
      "Source": 9116,
      "adratic": 9117,
      "Classification": 9118,
      "Te": 9119,
      "Up": 9120,
      "c_4": 9121,
      "_var_0": 9122,
      "despine": 9123,
      "df0": 9124,
      "labelpad": 9125,
      "values_": 9126,
      "DataSet": 9127,
      "_matrix_0": 9128,
      "172": 9129,
      "file_path_0": 9130,
      "_COL": 9131,
      "columns_to_drop": 9132,
      "surprise": 9133,
      "holdout": 9134,
      "EMBEDD": 9135,
      "3_2": 9136,
      "_filter": 9137,
      "h_1": 9138,
      "portion": 9139,
      "name_3": 9140,
      "housing_5": 9141,
[...]
